{
  "version": "1.0",
  "truncation": null,
  "padding": null,
  "added_tokens": [
    {
      "id": 0,
      "content": "<|endoftext|>",
      "single_word": false,
      "lstrip": false,
      "rstrip": false,
      "normalized": false,
      "special": true
    },
    {
      "id": 1,
      "content": "<|padding|>",
      "single_word": false,
      "lstrip": false,
      "rstrip": false,
      "normalized": false,
      "special": true
    }
  ],
  "normalizer": null,
  "pre_tokenizer": {
    "type": "ByteLevel",
    "add_prefix_space": false,
    "trim_offsets": true,
    "use_regex": true
  },
  "post_processor": {
    "type": "ByteLevel",
    "add_prefix_space": true,
    "trim_offsets": false,
    "use_regex": true
  },
  "decoder": {
    "type": "ByteLevel",
    "add_prefix_space": true,
    "trim_offsets": true,
    "use_regex": true
  },
  "model": {
    "type": "BPE",
    "dropout": null,
    "unk_token": null,
    "continuing_subword_prefix": null,
    "end_of_word_suffix": null,
    "fuse_unk": false,
    "byte_fallback": false,
    "ignore_merges": false,
    "vocab": {
      "<|endoftext|>": 0,
      "<|padding|>": 1,
      "!": 2,
      "\"": 3,
      "#": 4,
      "$": 5,
      "%": 6,
      "&": 7,
      "'": 8,
      "(": 9,
      ")": 10,
      "*": 11,
      "+": 12,
      ",": 13,
      "-": 14,
      ".": 15,
      "/": 16,
      "0": 17,
      "1": 18,
      "2": 19,
      "3": 20,
      "4": 21,
      "5": 22,
      "6": 23,
      "7": 24,
      "8": 25,
      "9": 26,
      ":": 27,
      ";": 28,
      "<": 29,
      "=": 30,
      ">": 31,
      "?": 32,
      "@": 33,
      "A": 34,
      "B": 35,
      "C": 36,
      "D": 37,
      "E": 38,
      "F": 39,
      "G": 40,
      "H": 41,
      "I": 42,
      "J": 43,
      "K": 44,
      "L": 45,
      "M": 46,
      "N": 47,
      "O": 48,
      "P": 49,
      "Q": 50,
      "R": 51,
      "S": 52,
      "T": 53,
      "U": 54,
      "V": 55,
      "W": 56,
      "X": 57,
      "Y": 58,
      "Z": 59,
      "[": 60,
      "\\": 61,
      "]": 62,
      "^": 63,
      "_": 64,
      "`": 65,
      "a": 66,
      "b": 67,
      "c": 68,
      "d": 69,
      "e": 70,
      "f": 71,
      "g": 72,
      "h": 73,
      "i": 74,
      "j": 75,
      "k": 76,
      "l": 77,
      "m": 78,
      "n": 79,
      "o": 80,
      "p": 81,
      "q": 82,
      "r": 83,
      "s": 84,
      "t": 85,
      "u": 86,
      "v": 87,
      "w": 88,
      "x": 89,
      "y": 90,
      "z": 91,
      "{": 92,
      "|": 93,
      "}": 94,
      "~": 95,
      "¡": 96,
      "¢": 97,
      "£": 98,
      "¤": 99,
      "¥": 100,
      "¦": 101,
      "§": 102,
      "¨": 103,
      "©": 104,
      "ª": 105,
      "«": 106,
      "¬": 107,
      "®": 108,
      "¯": 109,
      "°": 110,
      "±": 111,
      "²": 112,
      "³": 113,
      "´": 114,
      "µ": 115,
      "¶": 116,
      "·": 117,
      "¸": 118,
      "¹": 119,
      "º": 120,
      "»": 121,
      "¼": 122,
      "½": 123,
      "¾": 124,
      "¿": 125,
      "À": 126,
      "Á": 127,
      "Â": 128,
      "Ã": 129,
      "Ä": 130,
      "Å": 131,
      "Æ": 132,
      "Ç": 133,
      "È": 134,
      "É": 135,
      "Ê": 136,
      "Ë": 137,
      "Ì": 138,
      "Í": 139,
      "Î": 140,
      "Ï": 141,
      "Ð": 142,
      "Ñ": 143,
      "Ò": 144,
      "Ó": 145,
      "Ô": 146,
      "Õ": 147,
      "Ö": 148,
      "×": 149,
      "Ø": 150,
      "Ù": 151,
      "Ú": 152,
      "Û": 153,
      "Ü": 154,
      "Ý": 155,
      "Þ": 156,
      "ß": 157,
      "à": 158,
      "á": 159,
      "â": 160,
      "ã": 161,
      "ä": 162,
      "å": 163,
      "æ": 164,
      "ç": 165,
      "è": 166,
      "é": 167,
      "ê": 168,
      "ë": 169,
      "ì": 170,
      "í": 171,
      "î": 172,
      "ï": 173,
      "ð": 174,
      "ñ": 175,
      "ò": 176,
      "ó": 177,
      "ô": 178,
      "õ": 179,
      "ö": 180,
      "÷": 181,
      "ø": 182,
      "ù": 183,
      "ú": 184,
      "û": 185,
      "ü": 186,
      "ý": 187,
      "þ": 188,
      "ÿ": 189,
      "Ā": 190,
      "ā": 191,
      "Ă": 192,
      "ă": 193,
      "Ą": 194,
      "ą": 195,
      "Ć": 196,
      "ć": 197,
      "Ĉ": 198,
      "ĉ": 199,
      "Ċ": 200,
      "ċ": 201,
      "Č": 202,
      "č": 203,
      "Ď": 204,
      "ď": 205,
      "Đ": 206,
      "đ": 207,
      "Ē": 208,
      "ē": 209,
      "Ĕ": 210,
      "ĕ": 211,
      "Ė": 212,
      "ė": 213,
      "Ę": 214,
      "ę": 215,
      "Ě": 216,
      "ě": 217,
      "Ĝ": 218,
      "ĝ": 219,
      "Ğ": 220,
      "ğ": 221,
      "Ġ": 222,
      "ġ": 223,
      "Ģ": 224,
      "ģ": 225,
      "Ĥ": 226,
      "ĥ": 227,
      "Ħ": 228,
      "ħ": 229,
      "Ĩ": 230,
      "ĩ": 231,
      "Ī": 232,
      "ī": 233,
      "Ĭ": 234,
      "ĭ": 235,
      "Į": 236,
      "į": 237,
      "İ": 238,
      "ı": 239,
      "Ĳ": 240,
      "ĳ": 241,
      "Ĵ": 242,
      "ĵ": 243,
      "Ķ": 244,
      "ķ": 245,
      "ĸ": 246,
      "Ĺ": 247,
      "ĺ": 248,
      "Ļ": 249,
      "ļ": 250,
      "Ľ": 251,
      "ľ": 252,
      "Ŀ": 253,
      "ŀ": 254,
      "Ł": 255,
      "ł": 256,
      "Ń": 257,
      "Ġt": 258,
      "Ġa": 259,
      "he": 260,
      "in": 261,
      "re": 262,
      "Ġthe": 263,
      "on": 264,
      "er": 265,
      "Ġs": 266,
      "čĊ": 267,
      "Ġw": 268,
      "at": 269,
      "Ġo": 270,
      "en": 271,
      "Ġc": 272,
      "it": 273,
      "is": 274,
      "an": 275,
      "or": 276,
      "Ġb": 277,
      "es": 278,
      "ed": 279,
      "Ġf": 280,
      "ing": 281,
      "Ġp": 282,
      "ou": 283,
      "Ġan": 284,
      "al": 285,
      "Ġto": 286,
      "ar": 287,
      "Ġm": 288,
      "Ġin": 289,
      "Ġof": 290,
      "Ġh": 291,
      "Ġd": 292,
      "as": 293,
      "âĢ": 294,
      "ic": 295,
      "Ġand": 296,
      "Ġth": 297,
      "le": 298,
      "om": 299,
      "ion": 300,
      "ll": 301,
      "ent": 302,
      "Ġn": 303,
      "Ġl": 304,
      "Ġre": 305,
      "st": 306,
      "ve": 307,
      "ly": 308,
      "Ġe": 309,
      "ro": 310,
      "Ġbe": 311,
      "Ġg": 312,
      "id": 313,
      "ut": 314,
      "ac": 315,
      "ot": 316,
      "ĠT": 317,
      "Ġon": 318,
      "Ġthat": 319,
      "ĠI": 320,
      "ay": 321,
      "ĠS": 322,
      "Ġis": 323,
      "et": 324,
      "im": 325,
      "am": 326,
      "ad": 327,
      "ow": 328,
      "ig": 329,
      "se": 330,
      "Ġfor": 331,
      "âĢĻ": 332,
      "ĠA": 333,
      "ver": 334,
      "ct": 335,
      "ur": 336,
      "ld": 337,
      "ĠC": 338,
      "Ġu": 339,
      "Ġst": 340,
      "Ġy": 341,
      "Ġit": 342,
      "Ġhe": 343,
      "ir": 344,
      "ation": 345,
      "ith": 346,
      "Ġwh": 347,
      "ĠM": 348,
      "ce": 349,
      "ter": 350,
      "Ġwe": 351,
      "ol": 352,
      "il": 353,
      "Ġwith": 354,
      "Ġas": 355,
      "ĠB": 356,
      "ch": 357,
      "ill": 358,
      "nd": 359,
      "ĠP": 360,
      "ers": 361,
      "Ġyou": 362,
      "Ġwas": 363,
      "ke": 364,
      "ĠâĢ": 365,
      "Ġcon": 366,
      "Ġde": 367,
      "Ġr": 368,
      "her": 369,
      "if": 370,
      "ate": 371,
      "ag": 372,
      "Ġat": 373,
      "Ġha": 374,
      "ĠW": 375,
      "Ġse": 376,
      "ore": 377,
      "Ġpro": 378,
      "ĠH": 379,
      "pp": 380,
      "ul": 381,
      "ment": 382,
      "ĠD": 383,
      "Ġare": 384,
      "ri": 385,
      "Ġ1": 386,
      "est": 387,
      "us": 388,
      "Ġcom": 389,
      "and": 390,
      "ist": 391,
      "op": 392,
      "ĠR": 393,
      "ain": 394,
      "ĠThe": 395,
      "Ġ2": 396,
      "igh": 397,
      "end": 398,
      "rom": 399,
      "Ġ(": 400,
      "th": 401,
      "te": 402,
      "od": 403,
      "ĠF": 404,
      "Ġne": 405,
      "um": 406,
      "Ġex": 407,
      "un": 408,
      "ab": 409,
      "res": 410,
      "Ġnot": 411,
      "âĢĿ": 412,
      "ĠN": 413,
      "Ġv": 414,
      "Ġhave": 415,
      "ess": 416,
      "ity": 417,
      "ould": 418,
      "Ġor": 419,
      "ort": 420,
      "Ġby": 421,
      "os": 422,
      "ĠG": 423,
      "ive": 424,
      "Ġfrom": 425,
      "ant": 426,
      "Ġal": 427,
      "'s": 428,
      "oc": 429,
      "Ġsu": 430,
      "ĠL": 431,
      "art": 432,
      "el": 433,
      "Ġsh": 434,
      "Ġthis": 435,
      "em": 436,
      "qu": 437,
      "ight": 438,
      "nt": 439,
      "pe": 440,
      "ust": 441,
      "Ġle": 442,
      "ĠE": 443,
      "ies": 444,
      "Ġsa": 445,
      "Ġch": 446,
      "The": 447,
      "Ġab": 448,
      "all": 449,
      "out": 450,
      "ie": 451,
      "00": 452,
      "ack": 453,
      "red": 454,
      "Ġhas": 455,
      "ĠâĢľ": 456,
      "ally": 457,
      "ĠJ": 458,
      "Ġpl": 459,
      "ard": 460,
      "Ġgo": 461,
      "ome": 462,
      "ap": 463,
      "iv": 464,
      "ost": 465,
      "Ġhis": 466,
      "ĠO": 467,
      "gh": 468,
      "Ġtr": 469,
      "ear": 470,
      "our": 471,
      "Ġj": 472,
      "ak": 473,
      "ast": 474,
      "ud": 475,
      "Ġwor": 476,
      "Ġdo": 477,
      "Ġthey": 478,
      "Ġbut": 479,
      "Ġcan": 480,
      "Ġwill": 481,
      "rou": 482,
      "ge": 483,
      "Ġsaid": 484,
      "Ġwhe": 485,
      "ĠU": 486,
      "ich": 487,
      "Ġall": 488,
      "ok": 489,
      "Ġk": 490,
      "ide": 491,
      "Ġwho": 492,
      "Ġ\"": 493,
      "ther": 494,
      "ame": 495,
      "Ġout": 496,
      "ff": 497,
      "ans": 498,
      "ial": 499,
      "Ġtheir": 500,
      "ong": 501,
      "pl": 502,
      "ice": 503,
      "ure": 504,
      "one": 505,
      "Ġmore": 506,
      "age": 507,
      "act": 508,
      "Ġup": 509,
      "ike": 510,
      "ions": 511,
      "Ġme": 512,
      "ous": 513,
      "ine": 514,
      "Ġad": 515,
      "pt": 516,
      "Ġabout": 517,
      "ated": 518,
      "ep": 519,
      "ect": 520,
      "ra": 521,
      "ber": 522,
      "Ġone": 523,
      "Ġso": 524,
      "Ġus": 525,
      "og": 526,
      "ime": 527,
      "Ġwere": 528,
      "ia": 529,
      "are": 530,
      "ub": 531,
      "ĠK": 532,
      "Ġim": 533,
      "Ġhad": 534,
      "xt": 535,
      "cc": 536,
      "Ġwould": 537,
      "Ġcl": 538,
      "ue": 539,
      "Ġwhich": 540,
      "01": 541,
      "ind": 542,
      "ake": 543,
      "iz": 544,
      "very": 545,
      "Ġag": 546,
      "Ġte": 547,
      "Ġcomp": 548,
      "Ġoff": 549,
      "so": 550,
      "Ġun": 551,
      "Ġint": 552,
      "Ġbeen": 553,
      "per": 554,
      "Ġen": 555,
      "ĠTh": 556,
      "ign": 557,
      "au": 558,
      "Ġcont": 559,
      "ace": 560,
      "ary": 561,
      "Ġyear": 562,
      "ip": 563,
      "Ġlike": 564,
      "ven": 565,
      "Ġinc": 566,
      "ew": 567,
      "ook": 568,
      "ays": 569,
      "Ġman": 570,
      "Ġpe": 571,
      "ry": 572,
      "ĠIn": 573,
      "ose": 574,
      "able": 575,
      "Ġres": 576,
      "ite": 577,
      "Ġper": 578,
      "ord": 579,
      "Ġsp": 580,
      "ire": 581,
      "Ġother": 582,
      "ass": 583,
      "Ġsome": 584,
      "mer": 585,
      "ile": 586,
      "ib": 587,
      "ence": 588,
      "ople": 589,
      "ĠSt": 590,
      "ks": 591,
      "Ġ201": 592,
      "ress": 593,
      "Ġover": 594,
      "ations": 595,
      "Ġthere": 596,
      "Ġnew": 597,
      "Ġthan": 598,
      "ical": 599,
      "Ġalso": 600,
      "Ġdis": 601,
      "ult": 602,
      "Ġbec": 603,
      "own": 604,
      "Ġthem": 605,
      "ance": 606,
      "Ġar": 607,
      "Ġapp": 608,
      "ough": 609,
      "int": 610,
      "ail": 611,
      "ount": 612,
      "port": 613,
      "ru": 614,
      "ree": 615,
      "Ġwhen": 616,
      "Ġyour": 617,
      "Ġpart": 618,
      "Ġwhat": 619,
      "Ġpeople": 620,
      "--": 621,
      "av": 622,
      "orm": 623,
      "ond": 624,
      "Ġsc": 625,
      "Ġqu": 626,
      "fter": 627,
      "ase": 628,
      "ĠY": 629,
      "ĠCh": 630,
      "Ġany": 631,
      "Ġjust": 632,
      "ach": 633,
      "Ġits": 634,
      "of": 635,
      "ĠIt": 636,
      "Ġtime": 637,
      "ction": 638,
      "Ġ3": 639,
      "ens": 640,
      "Ġkn": 641,
      "ĠV": 642,
      "reat": 643,
      "Ġrec": 644,
      "Ġget": 645,
      "Ġif": 646,
      "ick": 647,
      "Ġmy": 648,
      "vel": 649,
      "Ġwork": 650,
      "Ġher": 651,
      "Ġinto": 652,
      "du": 653,
      "ian": 654,
      "irst": 655,
      "Ġno": 656,
      ".âĢĿ": 657,
      "Ġtw": 658,
      "ound": 659,
      "ings": 660,
      "ere": 661,
      "lic": 662,
      "ory": 663,
      "ition": 664,
      "Ġour": 665,
      "ident": 666,
      "ors": 667,
      "ob": 668,
      "Ġpre": 669,
      "Ġplay": 670,
      "ang": 671,
      "ove": 672,
      "text": 673,
      "ark": 674,
      "ause": 675,
      "wn": 676,
      "ink": 677,
      "ade": 678,
      "ates": 679,
      "amp": 680,
      "hing": 681,
      "Ġro": 682,
      "vers": 683,
      "Ġco": 684,
      "Ġshe": 685,
      "Ġhow": 686,
      "Ġpol": 687,
      ",âĢĿ": 688,
      "Ġafter": 689,
      "Ġcould": 690,
      "ne": 691,
      "Ġfirst": 692,
      "ĠHe": 693,
      "'t": 694,
      "nder": 695,
      "ild": 696,
      "Ġhim": 697,
      "Ġ19": 698,
      "Ġacc": 699,
      "ious": 700,
      "|>": 701,
      "<|": 702,
      "endof": 703,
      "endoftext": 704,
      "Ġpo": 705,
      "ons": 706,
      "Ġonly": 707,
      "aw": 708,
      "ict": 709,
      "Ġpr": 710,
      "Ġfe": 711,
      "hed": 712,
      "rit": 713,
      "Ġtwo": 714,
      "ish": 715,
      "form": 716,
      "..": 717,
      "erv": 718,
      "Ġact": 719,
      "Ġspe": 720,
      "ov": 721,
      "Ġcomm": 722,
      "we": 723,
      "âĢľ": 724,
      "Ġbet": 725,
      "ck": 726,
      "Ġbl": 727,
      "ning": 728,
      "Ġback": 729,
      ".\"": 730,
      "Ġmost": 731,
      "ces": 732,
      "Ġdec": 733,
      "ft": 734,
      "ood": 735,
      "iff": 736,
      "ĠâĢĵ": 737,
      "Ġam": 738,
      "Ġ4": 739,
      "oy": 740,
      "ater": 741,
      "round": 742,
      "rough": 743,
      "day": 744,
      "Ġagain": 745,
      "Ġdid": 746,
      "Ġ-": 747,
      "ual": 748,
      "ise": 749,
      "Ġwant": 750,
      "Ġunder": 751,
      "Ġdes": 752,
      "Ġcons": 753,
      "ull": 754,
      "lud": 755,
      "Ġbecause": 756,
      "Ġnow": 757,
      "sel": 758,
      "ents": 759,
      "ĠâĢĶ": 760,
      "Ġneed": 761,
      "Ġ$": 762,
      ",\"": 763,
      "Ġeven": 764,
      "man": 765,
      "Ġyears": 766,
      "tern": 767,
      "ublic": 768,
      "Ġatt": 769,
      "ĠWe": 770,
      "Ġinv": 771,
      "ments": 772,
      "ec": 773,
      "Ġadd": 774,
      "old": 775,
      "Ġsee": 776,
      "ting": 777,
      "Ġknow": 778,
      "ced": 779,
      "iss": 780,
      "Ġind": 781,
      "Ġsec": 782,
      "uch": 783,
      "Ġevery": 784,
      "fore": 785,
      "urn": 786,
      "Ġmake": 787,
      "Ġ5": 788,
      "pect": 789,
      "ject": 790,
      "Ġsupp": 791,
      "ock": 792,
      "In": 793,
      "Ġem": 794,
      "Ġthese": 795,
      "ĠUn": 796,
      "Ġwhere": 797,
      "oll": 798,
      "vern": 799,
      "Ġbu": 800,
      "Th": 801,
      "Ġlook": 802,
      "ational": 803,
      "Ġway": 804,
      "ĠAnd": 805,
      "Ġev": 806,
      "ng": 807,
      "Ġdon": 808,
      "oss": 809,
      "ating": 810,
      "Ġbeing": 811,
      "Ġmay": 812,
      "row": 813,
      "ily": 814,
      "Ġright": 815,
      "Ġmany": 816,
      "Ġdiff": 817,
      "Ġrem": 818,
      "iew": 819,
      "Ġthen": 820,
      "ason": 821,
      "ump": 822,
      "lect": 823,
      "Ġinclud": 824,
      "Ġdef": 825,
      "les": 826,
      "ased": 827,
      "Ġimp": 828,
      "ĠBut": 829,
      "aking": 830,
      "Ġcall": 831,
      "Ġrel": 832,
      "ont": 833,
      "ied": 834,
      "ited": 835,
      "Ġfl": 836,
      "Ġthink": 837,
      ").": 838,
      "meric": 839,
      "Ġthrough": 840,
      "ty": 841,
      "Ġshould": 842,
      "Ġsay": 843,
      "rib": 844,
      "Ġlast": 845,
      "Ġsy": 846,
      "ĠTr": 847,
      "uring": 848,
      "Ġ[": 849,
      "ities": 850,
      "Ġreg": 851,
      "ath": 852,
      "Ġvery": 853,
      "Ġmuch": 854,
      "Ġthose": 855,
      "ss": 856,
      "ower": 857,
      "tle": 858,
      "other": 859,
      "Ġpres": 860,
      "ĠThis": 861,
      "ative": 862,
      "ific": 863,
      "Ġshow": 864,
      "Ġstate": 865,
      "arg": 866,
      "Ġbr": 867,
      "hen": 868,
      "Ġph": 869,
      "oth": 870,
      "und": 871,
      "Ġwell": 872,
      "Ġdoes": 873,
      "Ġcount": 874,
      "Ġend": 875,
      "Ġdown": 876,
      "Ġbel": 877,
      "Ġown": 878,
      "als": 879,
      "Ġuse": 880,
      "ĠWh": 881,
      "arly": 882,
      "Ġ200": 883,
      "ics": 884,
      "ange": 885,
      "ters": 886,
      "gr": 887,
      "ts": 888,
      "Ġass": 889,
      "Ġmon": 890,
      "Ġbefore": 891,
      "ince": 892,
      "Ġlong": 893,
      "ĠAmeric": 894,
      "Ġstart": 895,
      "ues": 896,
      "ward": 897,
      "Ġke": 898,
      "omet": 899,
      "Ġgovern": 900,
      "ible": 901,
      "up": 902,
      "ĠNew": 903,
      "Ġfin": 904,
      "Ġteam": 905,
      "com": 906,
      "Ġreport": 907,
      "oun": 908,
      "ix": 909,
      "ble": 910,
      "ren": 911,
      "ek": 912,
      "ener": 913,
      "Ġmade": 914,
      "Ġsm": 915,
      "Ġhel": 916,
      "ife": 917,
      "erson": 918,
      "ility": 919,
      "),": 920,
      "Ġsuch": 921,
      "ms": 922,
      "Ġgoing": 923,
      "olog": 924,
      "Ġgood": 925,
      "ually": 926,
      "Ġac": 927,
      "Ġ6": 928,
      "ful": 929,
      "rest": 930,
      "Ġstud": 931,
      "Ġworld": 932,
      "its": 933,
      "Ġset": 934,
      "Ġeff": 935,
      "Ġsur": 936,
      "ax": 937,
      "Ġagainst": 938,
      "tain": 939,
      "Ġent": 940,
      "ists": 941,
      "It": 942,
      "ork": 943,
      "stem": 944,
      "ars": 945,
      "Ġpoint": 946,
      "Ġgu": 947,
      "âĢĶ": 948,
      "Ġgame": 949,
      "Ġprov": 950,
      "Ġsub": 951,
      "ys": 952,
      "Ġhelp": 953,
      "ank": 954,
      "li": 955,
      "roup": 956,
      "illion": 957,
      "Ġstill": 958,
      "Ġprodu": 959,
      "Ġwhile": 960,
      "000": 961,
      "gan": 962,
      "cy": 963,
      "Ġob": 964,
      "Ġlead": 965,
      "Ġsays": 966,
      "ween": 967,
      "Ġstr": 968,
      "ef": 969,
      "Ġsim": 970,
      "Ġmin": 971,
      "Ġinst": 972,
      "Ġinte": 973,
      "ism": 974,
      "imes": 975,
      "We": 976,
      "alk": 977,
      "Ġgr": 978,
      "Ġconf": 979,
      "cess": 980,
      "land": 981,
      "Ġcol": 982,
      "self": 983,
      "Ġtake": 984,
      "Ġsame": 985,
      "read": 986,
      "Ġinter": 987,
      "ures": 988,
      "ool": 989,
      "Ġdiffere": 990,
      "Ġcr": 991,
      "ever": 992,
      "Ġbetween": 993,
      "io": 994,
      "Ġthough": 995,
      "Ġhigh": 996,
      "Ġop": 997,
      "Ġoffic": 998,
      "gg": 999,
      "Ġed": 1000,
      "Ġsign": 1001,
      "Ġnum": 1002,
      "arch": 1003,
      "ames": 1004,
      "ah": 1005,
      "Ġdisc": 1006,
      "ĠRe": 1007,
      "ollow": 1008,
      "ution": 1009,
      "air": 1010,
      "hip": 1011,
      "any": 1012,
      "velop": 1013,
      "led": 1014,
      "Ġref": 1015,
      "hes": 1016,
      "Ġgovernment": 1017,
      "cent": 1018,
      "way": 1019,
      "Ġter": 1020,
      "uss": 1021,
      "Ġlaw": 1022,
      "ner": 1023,
      "ten": 1024,
      "Ġrun": 1025,
      "atch": 1026,
      "Ġsomet": 1027,
      "ted": 1028,
      "Ġtrans": 1029,
      "Ġser": 1030,
      "ives": 1031,
      "ell": 1032,
      "Ġhere": 1033,
      "Ġaround": 1034,
      "Ġthree": 1035,
      "Ġins": 1036,
      "ather": 1037,
      "ph": 1038,
      "ĠAr": 1039,
      "ave": 1040,
      "Ġexp": 1041,
      "ved": 1042,
      "ĠYou": 1043,
      "ets": 1044,
      "Ġreal": 1045,
      "Ġmem": 1046,
      "Ġsystem": 1047,
      "Ġfound": 1048,
      "Ġmed": 1049,
      "cer": 1050,
      "cept": 1051,
      "Ġmod": 1052,
      "ouse": 1053,
      "oot": 1054,
      "az": 1055,
      "Ġused": 1056,
      "ci": 1057,
      "con": 1058,
      "Ġsupport": 1059,
      "Ġgroup": 1060,
      "Ġ7": 1061,
      "ving": 1062,
      "Ġreally": 1063,
      "ĠAl": 1064,
      "Ġ10": 1065,
      "ins": 1066,
      "Ġhand": 1067,
      "ĠLe": 1068,
      "ale": 1069,
      "Ġgreat": 1070,
      "cial": 1071,
      "Ġret": 1072,
      "Ġcour": 1073,
      "ying": 1074,
      "Ġcar": 1075,
      "Ġcur": 1076,
      "Ġcap": 1077,
      "Ġpublic": 1078,
      "Ġext": 1079,
      "pr": 1080,
      "ense": 1081,
      "ton": 1082,
      "alth": 1083,
      "Ġfam": 1084,
      "Ġwom": 1085,
      "Ġfact": 1086,
      "Ġexper": 1087,
      "irect": 1088,
      "Ġfr": 1089,
      "ĠCom": 1090,
      "ĠCl": 1091,
      "ĠThey": 1092,
      "Ġhapp": 1093,
      "Ġboth": 1094,
      "ines": 1095,
      "ices": 1096,
      "Ġfind": 1097,
      "Ġdet": 1098,
      "Ġday": 1099,
      "oh": 1100,
      "Ġlit": 1101,
      "Ġread": 1102,
      "ular": 1103,
      "Ġsl": 1104,
      "ĠAs": 1105,
      "uth": 1106,
      "Ġduring": 1107,
      "Ġrep": 1108,
      "Ġdevelop": 1109,
      "----": 1110,
      "ĠIs": 1111,
      "min": 1112,
      "Ġmonth": 1113,
      "Ġcre": 1114,
      "ages": 1115,
      "Ġbig": 1116,
      "ision": 1117,
      "ĠTrump": 1118,
      "Ġserv": 1119,
      "Ġiss": 1120,
      ".[": 1121,
      "the": 1122,
      "Ġperson": 1123,
      "Ġweek": 1124,
      "akes": 1125,
      "Ġ8": 1126,
      "ared": 1127,
      "Ġsince": 1128,
      "med": 1129,
      "ĠSh": 1130,
      "Ġtold": 1131,
      "ically": 1132,
      "Ġfew": 1133,
      "ata": 1134,
      "Ġfollow": 1135,
      "Ġ9": 1136,
      "ves": 1137,
      "ivers": 1138,
      "get": 1139,
      "Ġ.": 1140,
      "ording": 1141,
      "Ġcent": 1142,
      "Ġlot": 1143,
      "Ġexpl": 1144,
      "Ġtoo": 1145,
      "aj": 1146,
      "Ġwar": 1147,
      "ered": 1148,
      "Ġcor": 1149,
      "Ġopp": 1150,
      "Ġleg": 1151,
      "ex": 1152,
      "Ġrequ": 1153,
      "Ġbelie": 1154,
      "Ġgener": 1155,
      "Ġ0": 1156,
      "ash": 1157,
      "Ġfil": 1158,
      "ric": 1159,
      "Ġinf": 1160,
      "Ġput": 1161,
      "ĠIf": 1162,
      "Wh": 1163,
      "der": 1164,
      "Ġcontin": 1165,
      "Ġpolit": 1166,
      "ention": 1167,
      "rent": 1168,
      "ĠDe": 1169,
      "bers": 1170,
      "Ġcle": 1171,
      "Ġdifferent": 1172,
      "ute": 1173,
      "Ġresp": 1174,
      "Ġ'": 1175,
      "ĠFr": 1176,
      "Ġanother": 1177,
      "ness": 1178,
      "chool": 1179,
      "iet": 1180,
      "Ġsomething": 1181,
      "ized": 1182,
      "Ġloc": 1183,
      "Ġplan": 1184,
      "ize": 1185,
      "Ġrele": 1186,
      "ody": 1187,
      "Ġhead": 1188,
      "ience": 1189,
      "Ġcommun": 1190,
      "Ġche": 1191,
      "Ġsoc": 1192,
      "Ġinvest": 1193,
      "Ġthings": 1194,
      "ross": 1195,
      "This": 1196,
      "ple": 1197,
      "thing": 1198,
      "Ġeach": 1199,
      "__": 1200,
      "Ġfar": 1201,
      "Ġmark": 1202,
      "Ġpower": 1203,
      "Ġbo": 1204,
      "ants": 1205,
      "ned": 1206,
      "Ġlife": 1207,
      "Ġchild": 1208,
      "Ġmight": 1209,
      "Ġart": 1210,
      "Ġvot": 1211,
      "Ġposs": 1212,
      "tt": 1213,
      "Ġmet": 1214,
      "Ġpass": 1215,
      "iness": 1216,
      "ier": 1217,
      "arge": 1218,
      "Ġcamp": 1219,
      "ĠFor": 1220,
      "Ġask": 1221,
      "ield": 1222,
      "Ġadv": 1223,
      "view": 1224,
      "uc": 1225,
      "Ġnext": 1226,
      "ĠâĢĺ": 1227,
      "Ġdep": 1228,
      "Ġallow": 1229,
      "Ġbus": 1230,
      "Ġbest": 1231,
      "Ġdem": 1232,
      "Ġopen": 1233,
      "cl": 1234,
      "Ġsecond": 1235,
      "Ġquest": 1236,
      "ĠPro": 1237,
      "Ġcome": 1238,
      "ient": 1239,
      "Ġnever": 1240,
      "ik": 1241,
      "gram": 1242,
      "ĠAn": 1243,
      "Ġgot": 1244,
      "Ġpost": 1245,
      "ĠThat": 1246,
      "ital": 1247,
      "Ġseem": 1248,
      "ĠUS": 1249,
      "nce": 1250,
      "co": 1251,
      "==": 1252,
      "mber": 1253,
      "Ġpercent": 1254,
      "Ġfeel": 1255,
      "ired": 1256,
      "istr": 1257,
      "Ġincre": 1258,
      "Ġhome": 1259,
      "Ġav": 1260,
      "Ġpri": 1261,
      "Ġdirect": 1262,
      "son": 1263,
      "less": 1264,
      "ug": 1265,
      "Ġimport": 1266,
      "ral": 1267,
      "ĠRep": 1268,
      "Ġmillion": 1269,
      "Ġcare": 1270,
      "osed": 1271,
      "Ġincluding": 1272,
      "ately": 1273,
      "orn": 1274,
      "Ġhard": 1275,
      "Ġtop": 1276,
      "Ġwithout": 1277,
      "Ġcontro": 1278,
      "Ġplace": 1279,
      "conom": 1280,
      "Ġcomple": 1281,
      "Ġhum": 1282,
      "Ġbuild": 1283,
      "Ġinform": 1284,
      "ret": 1285,
      "Ġbetter": 1286,
      "Ġide": 1287,
      "Ġproble": 1288,
      "Ġresult": 1289,
      "chn": 1290,
      "oney": 1291,
      "ĠBl": 1292,
      "Ġstand": 1293,
      "Ġnumber": 1294,
      "aim": 1295,
      "Ġcountry": 1296,
      "Ġel": 1297,
      "line": 1298,
      "ably": 1299,
      "riend": 1300,
      "ways": 1301,
      "Ġrecent": 1302,
      "gy": 1303,
      "Ġseason": 1304,
      "Ġinterest": 1305,
      "ama": 1306,
      "Ġfour": 1307,
      "Ġtri": 1308,
      "Ġappro": 1309,
      "Ġless": 1310,
      "But": 1311,
      "ished": 1312,
      "ead": 1313,
      "ode": 1314,
      "Ġpartic": 1315,
      "ling": 1316,
      "uro": 1317,
      "rat": 1318,
      "Ġlittle": 1319,
      "Ġgl": 1320,
      "Ġmov": 1321,
      "Ġbeh": 1322,
      "Ġturn": 1323,
      "ĠZ": 1324,
      "Ġbro": 1325,
      "Ġleft": 1326,
      "to": 1327,
      "Ġlet": 1328,
      "Ġcalled": 1329,
      "ĠInd": 1330,
      "Ġmil": 1331,
      "Ġcase": 1332,
      "app": 1333,
      "ency": 1334,
      "Ġann": 1335,
      "Ġrest": 1336,
      "Ġdr": 1337,
      "ised": 1338,
      "Ġpop": 1339,
      "Ġattack": 1340,
      "Ġprogram": 1341,
      "Ġdata": 1342,
      "Ġkeep": 1343,
      "Ġeffect": 1344,
      "Ġfull": 1345,
      "Ġmove": 1346,
      "rem": 1347,
      "Ġfun": 1348,
      "ĠThere": 1349,
      "Ġ20": 1350,
      "ina": 1351,
      "Ġusing": 1352,
      "ger": 1353,
      "Ġpay": 1354,
      "Ġprev": 1355,
      "be": 1356,
      "Ġdidn": 1357,
      "ider": 1358,
      "Ġmain": 1359,
      "ajor": 1360,
      "ature": 1361,
      "leg": 1362,
      "Ġval": 1363,
      "inal": 1364,
      "Ġsit": 1365,
      "Ġnews": 1366,
      "Ġear": 1367,
      "Ġtest": 1368,
      "Ġwin": 1369,
      "Ġeconom": 1370,
      "ains": 1371,
      "Ġpos": 1372,
      "Ġlist": 1373,
      "ract": 1374,
      "Ġsmall": 1375,
      "'re": 1376,
      "Ġwrit": 1377,
      "ĠAmerican": 1378,
      "rap": 1379,
      "ready": 1380,
      "Ġform": 1381,
      "uck": 1382,
      "iving": 1383,
      "Ġlevel": 1384,
      "ined": 1385,
      "Ġeas": 1386,
      "Ġchar": 1387,
      "ploy": 1388,
      "He": 1389,
      "ided": 1390,
      "Ġwomen": 1391,
      "Ġpolice": 1392,
      "Ġchange": 1393,
      "ird": 1394,
      "ĠAd": 1395,
      "Ġcompany": 1396,
      "mit": 1397,
      "Ġschool": 1398,
      "ology": 1399,
      "Ġty": 1400,
      "Ġprocess": 1401,
      "10": 1402,
      "Ġcurrent": 1403,
      "reen": 1404,
      "ĠSe": 1405,
      "Ġrece": 1406,
      "Ġ--": 1407,
      "Ġalready": 1408,
      "Ġhist": 1409,
      "Ġprom": 1410,
      "Ġmat": 1411,
      "Ġpresident": 1412,
      "used": 1413,
      "orth": 1414,
      "...": 1415,
      "ĠUnited": 1416,
      "ohn": 1417,
      "Ġbre": 1418,
      "ards": 1419,
      "Ġexpect": 1420,
      "Ġmoney": 1421,
      "ron": 1422,
      "Ġunt": 1423,
      "ians": 1424,
      "ĠPh": 1425,
      "ĠQ": 1426,
      "Ġalways": 1427,
      "wit": 1428,
      "Ġclass": 1429,
      "Ġbusiness": 1430,
      "ruct": 1431,
      "Ġ12": 1432,
      "Ġdri": 1433,
      "Ġproject": 1434,
      "Ġwhy": 1435,
      "aff": 1436,
      "ĠHow": 1437,
      "ĠSo": 1438,
      "Ġofficial": 1439,
      "ases": 1440,
      "Ġspec": 1441,
      "Ġ18": 1442,
      "Ġthing": 1443,
      "Ġdesign": 1444,
      "Ġtechn": 1445,
      "ĠShe": 1446,
      "Ġlater": 1447,
      "Ġable": 1448,
      "Ġhealth": 1449,
      "ĠOb": 1450,
      "iven": 1451,
      "Ġjob": 1452,
      "Ġorgan": 1453,
      "urs": 1454,
      "ĠBe": 1455,
      "stand": 1456,
      "Ġprof": 1457,
      "Ġstory": 1458,
      "Ġbook": 1459,
      "Ġinformation": 1460,
      "ĠGo": 1461,
      "Ġcity": 1462,
      "Ġfree": 1463,
      "Ġsol": 1464,
      "Ġchang": 1465,
      "iversity": 1466,
      "ertain": 1467,
      "ption": 1468,
      "outh": 1469,
      "ury": 1470,
      "lection": 1471,
      "Ġtax": 1472,
      "Ġclaim": 1473,
      "Ġtalk": 1474,
      "Ġmajor": 1475,
      "Ġvis": 1476,
      "aign": 1477,
      "ĠCan": 1478,
      "Ġoper": 1479,
      "Ġmen": 1480,
      "Ġpat": 1481,
      "Ġrese": 1482,
      "Ġpast": 1483,
      "ending": 1484,
      "here": 1485,
      "Ġimportant": 1486,
      "ior": 1487,
      "sc": 1488,
      "Ġold": 1489,
      "Ġmust": 1490,
      "Ġsk": 1491,
      "ural": 1492,
      "ample": 1493,
      "Ġcost": 1494,
      "ĠSp": 1495,
      "Ġleast": 1496,
      "urity": 1497,
      "ĠMar": 1498,
      "ured": 1499,
      "Ġdoesn": 1500,
      "Ġhappen": 1501,
      "Ġvar": 1502,
      "Ġgrow": 1503,
      "Ġstre": 1504,
      "Ġest": 1505,
      "Ġaway": 1506,
      "uthor": 1507,
      "Ġkill": 1508,
      "ides": 1509,
      "side": 1510,
      "Ġmaking": 1511,
      "Ġhop": 1512,
      "Ġdays": 1513,
      "acy": 1514,
      "eral": 1515,
      "ained": 1516,
      "els": 1517,
      "ator": 1518,
      "ox": 1519,
      "Ġaff": 1520,
      "Ġenough": 1521,
      "Ġdist": 1522,
      "oad": 1523,
      "ission": 1524,
      "resident": 1525,
      "50": 1526,
      "Ġcame": 1527,
      "ccess": 1528,
      "Ġpolic": 1529,
      "Ġedit": 1530,
      "Ġtell": 1531,
      "Ġview": 1532,
      "Ġkind": 1533,
      "Ġrecord": 1534,
      "ern": 1535,
      "Ġconst": 1536,
      "Ġlarge": 1537,
      "ley": 1538,
      "ney": 1539,
      "Ġcampaign": 1540,
      "Ġfamily": 1541,
      "Ġfriend": 1542,
      "As": 1543,
      "rist": 1544,
      "ality": 1545,
      "ush": 1546,
      "anc": 1547,
      "bs": 1548,
      "Ġuntil": 1549,
      "arent": 1550,
      "gu": 1551,
      "ĠPl": 1552,
      "ising": 1553,
      "by": 1554,
      "ries": 1555,
      "ional": 1556,
      "Ġline": 1557,
      "Ġvide": 1558,
      "Ġair": 1559,
      "If": 1560,
      "Ġdeal": 1561,
      "11": 1562,
      "ering": 1563,
      "ified": 1564,
      "ror": 1565,
      "aining": 1566,
      "aps": 1567,
      "pped": 1568,
      "Ġbecome": 1569,
      "Ġelect": 1570,
      "ived": 1571,
      "ware": 1572,
      "Ġworking": 1573,
      "Ġ,": 1574,
      "iol": 1575,
      "Ġes": 1576,
      "Ġmar": 1577,
      "augh": 1578,
      "ĠJohn": 1579,
      "Ġtook": 1580,
      "ane": 1581,
      "Ġactually": 1582,
      "alf": 1583,
      "ott": 1584,
      "Ġve": 1585,
      "ĠRepublic": 1586,
      "ister": 1587,
      "Ġgames": 1588,
      "St": 1589,
      "br": 1590,
      "Ġoften": 1591,
      "âĢ¦": 1592,
      "Ġintern": 1593,
      "Ġfore": 1594,
      "work": 1595,
      "Ġbas": 1596,
      "ison": 1597,
      "Ġ=": 1598,
      "Ġgive": 1599,
      "ĠSc": 1600,
      "Ġmean": 1601,
      "Ġformer": 1602,
      "most": 1603,
      "Ġpolitical": 1604,
      "wh": 1605,
      "ĠAll": 1606,
      "ann": 1607,
      "uture": 1608,
      "Ġmarket": 1609,
      "Ġfund": 1610,
      "Ġfac": 1611,
      "ony": 1612,
      "Ġdev": 1613,
      "icle": 1614,
      "Ġhuman": 1615,
      "ocrat": 1616,
      "Ġpar": 1617,
      "Ġaccording": 1618,
      "ĠEuro": 1619,
      "year": 1620,
      "Ġever": 1621,
      "Ġorder": 1622,
      "19": 1623,
      "Ġwon": 1624,
      "Ġperform": 1625,
      "Ġlear": 1626,
      "Ġbit": 1627,
      "aring": 1628,
      "ization": 1629,
      "oint": 1630,
      "Ġsever": 1631,
      "Ġreturn": 1632,
      "tem": 1633,
      "Ġsing": 1634,
      "eng": 1635,
      "for": 1636,
      "Ġname": 1637,
      "Ġdeb": 1638,
      "Ġprote": 1639,
      "gin": 1640,
      "ither": 1641,
      "Ġtimes": 1642,
      "ĠMc": 1643,
      "ĠOr": 1644,
      "Ġwr": 1645,
      "There": 1646,
      "Ġplayers": 1647,
      "rop": 1648,
      "Ġevent": 1649,
      "Ġchildren": 1650,
      "Ġla": 1651,
      "Ġpress": 1652,
      "ĠAt": 1653,
      "Ġhaving": 1654,
      "Ġnight": 1655,
      "Ġearly": 1656,
      "Ġcharac": 1657,
      "Ġeng": 1658,
      "enn": 1659,
      "Ġword": 1660,
      "sh": 1661,
      "ĠCon": 1662,
      "Ġlikely": 1663,
      "//": 1664,
      "idd": 1665,
      "Ġseen": 1666,
      "ĠDem": 1667,
      "Ġdoing": 1668,
      "Ġtoday": 1669,
      "Ġcrit": 1670,
      "ĠMr": 1671,
      "artment": 1672,
      "Ġprop": 1673,
      "Ġwater": 1674,
      "Ġ]": 1675,
      "Ġappear": 1676,
      "ER": 1677,
      "Ġra": 1678,
      "Ġpot": 1679,
      "vert": 1680,
      "idence": 1681,
      "Ġseveral": 1682,
      "ĠSy": 1683,
      "ched": 1684,
      "Ġyoung": 1685,
      "Ġ15": 1686,
      "Ġwhether": 1687,
      "ĠPresident": 1688,
      "Ġmeet": 1689,
      "iqu": 1690,
      "ĠMay": 1691,
      "Ġvers": 1692,
      "ories": 1693,
      "aken": 1694,
      "Ġfive": 1695,
      "Ġside": 1696,
      "Ġsocial": 1697,
      "Ġequ": 1698,
      "ium": 1699,
      "ats": 1700,
      "ands": 1701,
      "raft": 1702,
      "ots": 1703,
      "Ġwent": 1704,
      "Ġquestion": 1705,
      "Ġ199": 1706,
      "iously": 1707,
      "Ġcertain": 1708,
      "Ġsure": 1709,
      "Ġcontrol": 1710,
      "une": 1711,
      "Ġmedia": 1712,
      "ĠRuss": 1713,
      "lf": 1714,
      "Ġmembers": 1715,
      "Ġmilit": 1716,
      "ential": 1717,
      "ee": 1718,
      "urch": 1719,
      "Ġproduct": 1720,
      "Ġmonths": 1721,
      "Ġben": 1722,
      "Ġdone": 1723,
      "ĠYork": 1724,
      "ague": 1725,
      "iver": 1726,
      "Ġhour": 1727,
      "Ġsuccess": 1728,
      "20": 1729,
      "Ġshort": 1730,
      "ĠStates": 1731,
      "ĠNo": 1732,
      "Ġocc": 1733,
      "Ġexample": 1734,
      "ially": 1735,
      "And": 1736,
      "ster": 1737,
      "Ġfuture": 1738,
      "Ġinvol": 1739,
      "Ġamong": 1740,
      "Ġalong": 1741,
      "Ġfight": 1742,
      "Ġconcer": 1743,
      "ones": 1744,
      "nect": 1745,
      "ended": 1746,
      "ĠEurope": 1747,
      "Ġavail": 1748,
      "let": 1749,
      "ĠCol": 1750,
      "ĠCar": 1751,
      "Ġactiv": 1752,
      "Ġmeans": 1753,
      "ulation": 1754,
      "ĠSte": 1755,
      "ggest": 1756,
      "Ġcho": 1757,
      "Ġdesc": 1758,
      "ĠOn": 1759,
      "ourn": 1760,
      "ubl": 1761,
      "ortun": 1762,
      "Ġwithin": 1763,
      "iting": 1764,
      "ĠBr": 1765,
      "itive": 1766,
      "Ġcourse": 1767,
      "Ġ11": 1768,
      "Ġant": 1769,
      "verage": 1770,
      "ivid": 1771,
      "Ġviol": 1772,
      "ball": 1773,
      "gress": 1774,
      "rew": 1775,
      "Ġonce": 1776,
      "oci": 1777,
      "uff": 1778,
      "ler": 1779,
      "imate": 1780,
      "ederal": 1781,
      "Ġhold": 1782,
      "Ġunderstand": 1783,
      "Ġacross": 1784,
      "Ġfail": 1785,
      "Ġpossible": 1786,
      "Ġi": 1787,
      "ĠObama": 1788,
      "Ġsuggest": 1789,
      "Ġproblem": 1790,
      "not": 1791,
      "Ġnon": 1792,
      "Ġcommunity": 1793,
      "Ġsex": 1794,
      "Ġreason": 1795,
      "Ġinvestig": 1796,
      "Ġmus": 1797,
      "Ġyet": 1798,
      "ald": 1799,
      "Ġmakes": 1800,
      "Ġorig": 1801,
      "ĠWhen": 1802,
      "Ġ&": 1803,
      "my": 1804,
      "ĠTe": 1805,
      "Ġauthor": 1806,
      "Ġlocal": 1807,
      "Ġthought": 1808,
      "Ġpriv": 1809,
      "Ġothers": 1810,
      "por": 1811,
      "Ġ#": 1812,
      "af": 1813,
      "Ġstrong": 1814,
      "Ġknown": 1815,
      "back": 1816,
      "ensive": 1817,
      "Ġgiven": 1818,
      "ued": 1819,
      "ĠX": 1820,
      "book": 1821,
      "You": 1822,
      "30": 1823,
      "Ġannoun": 1824,
      "ĠCo": 1825,
      "Ġlim": 1826,
      "ances": 1827,
      "orld": 1828,
      "Ġasked": 1829,
      "Ġprob": 1830,
      "Ġgetting": 1831,
      "Ġ2016": 1832,
      "urther": 1833,
      "Ġcond": 1834,
      "Ġbelieve": 1835,
      "Ġvideo": 1836,
      "ĠState": 1837,
      "iber": 1838,
      "aged": 1839,
      "Ġcreat": 1840,
      "12": 1841,
      "ams": 1842,
      "Ġreported": 1843,
      "itions": 1844,
      "Ġident": 1845,
      "iety": 1846,
      "ored": 1847,
      "ene": 1848,
      "âĢĵ": 1849,
      "Ġ:": 1850,
      "Ġ30": 1851,
      "Ġcut": 1852,
      "ashing": 1853,
      "Ġbat": 1854,
      ".,": 1855,
      "Ġavailable": 1856,
      "ober": 1857,
      "Ġsour": 1858,
      "'ve": 1859,
      "arm": 1860,
      "--------": 1861,
      "aster": 1862,
      "Ġhig": 1863,
      "ĠHouse": 1864,
      "ĠCent": 1865,
      "Ġlight": 1866,
      "inc": 1867,
      "ĠAm": 1868,
      "Ġsaf": 1869,
      "iron": 1870,
      "Ġnet": 1871,
      "Ġsent": 1872,
      "Ġemploy": 1873,
      "Ġbased": 1874,
      "ament": 1875,
      "Ġindust": 1876,
      "ĠFl": 1877,
      "Ġissue": 1878,
      "Ġcomes": 1879,
      "ability": 1880,
      "selves": 1881,
      "Ġclose": 1882,
      "For": 1883,
      "Ġnational": 1884,
      "orts": 1885,
      "Ġdeath": 1886,
      "ĠUniversity": 1887,
      "ĠEx": 1888,
      "Ġstarted": 1889,
      "uly": 1890,
      "ĠMin": 1891,
      "Ġlow": 1892,
      "use": 1893,
      "Ġlove": 1894,
      "ring": 1895,
      "Ġfoc": 1896,
      "ustom": 1897,
      "Ġtrying": 1898,
      "Ġago": 1899,
      "Ġaccess": 1900,
      "Ġland": 1901,
      "gether": 1902,
      "Ġtogether": 1903,
      "Ġidea": 1904,
      "resent": 1905,
      "Ġclear": 1906,
      "Ġexperience": 1907,
      "ĠOne": 1908,
      "ilar": 1909,
      "Ġisn": 1910,
      "Ġaccount": 1911,
      "Ġimpro": 1912,
      "Ġalmost": 1913,
      "itional": 1914,
      "Ġca": 1915,
      "Ġseries": 1916,
      "ails": 1917,
      "ief": 1918,
      "Ġfollowing": 1919,
      "utes": 1920,
      "hers": 1921,
      "Ġ2015": 1922,
      "ĠDemocrat": 1923,
      "ination": 1924,
      "Ġhistory": 1925,
      "unch": 1926,
      "ĠPol": 1927,
      "Ġmom": 1928,
      "rodu": 1929,
      "Ġprot": 1930,
      "ĠChrist": 1931,
      "Ġadded": 1932,
      "erence": 1933,
      "AT": 1934,
      "Ġtrad": 1935,
      "Ġlooking": 1936,
      "ĠAmerica": 1937,
      "ĠSen": 1938,
      "Ġsix": 1939,
      "ows": 1940,
      "ĠWhat": 1941,
      "ograp": 1942,
      "Ġfav": 1943,
      "Ġpract": 1944,
      "though": 1945,
      "eb": 1946,
      "Ġparty": 1947,
      "ividual": 1948,
      "uge": 1949,
      "Ġ2014": 1950,
      "Ġcompet": 1951,
      "Ġarea": 1952,
      "Ġlive": 1953,
      "ttp": 1954,
      "ote": 1955,
      "ators": 1956,
      "Ġhalf": 1957,
      "Ġhit": 1958,
      "Ġanything": 1959,
      "Ġfilm": 1960,
      "Ġris": 1961,
      "aid": 1962,
      "Ġrul": 1963,
      "reed": 1964,
      "inton": 1965,
      "Ġanal": 1966,
      "ged": 1967,
      "raw": 1968,
      "Ġentire": 1969,
      "nes": 1970,
      "tempt": 1971,
      "Ġcomplete": 1972,
      "Ġcommit": 1973,
      "Ġsaying": 1974,
      "Ġ16": 1975,
      "Ġtry": 1976,
      "rote": 1977,
      "ĠTo": 1978,
      "ĠCanad": 1979,
      "ĠBro": 1980,
      "ĠEng": 1981,
      "Ġaut": 1982,
      "erman": 1983,
      "Ġphot": 1984,
      "ai": 1985,
      "witter": 1986,
      "IN": 1987,
      "cially": 1988,
      "Ġbill": 1989,
      "ĠComm": 1990,
      "igr": 1991,
      "ĠPr": 1992,
      "play": 1993,
      "Ġquick": 1994,
      "An": 1995,
      "off": 1996,
      "**": 1997,
      "Ġbad": 1998,
      "ert": 1999,
      "Ġmult": 2000,
      "Ġfood": 2001,
      "Ġpresent": 2002,
      "Ġsingle": 2003,
      "Ġproper": 2004,
      "ĠSec": 2005,
      "Ġvict": 2006,
      "://": 2007,
      "ĠBrit": 2008,
      "irc": 2009,
      "Ġpolicy": 2010,
      "wards": 2011,
      "Ġ14": 2012,
      "Ġbehind": 2013,
      "Ġmess": 2014,
      "Ġsecurity": 2015,
      "Ġnear": 2016,
      "Ġrather": 2017,
      "ministr": 2018,
      "ien": 2019,
      "ales": 2020,
      "What": 2021,
      "ev": 2022,
      "Ġtaken": 2023,
      "Ġer": 2024,
      "Ġface": 2025,
      "ĠDep": 2026,
      "Ġmilitary": 2027,
      "Ġmiss": 2028,
      "Ġmor": 2029,
      "Ġconsider": 2030,
      "Ġindividual": 2031,
      "atic": 2032,
      "'m": 2033,
      "Ġz": 2034,
      "Ġkey": 2035,
      "rael": 2036,
      "Ġdiscuss": 2037,
      "ocu": 2038,
      "Ġtot": 2039,
      "Ġsomeone": 2040,
      "Ġfall": 2041,
      "Ġcourt": 2042,
      "Ġstudy": 2043,
      "Ġwanted": 2044,
      "sy": 2045,
      "amed": 2046,
      "ON": 2047,
      "Ġ)": 2048,
      "ĠDon": 2049,
      "osp": 2050,
      "Ġthreat": 2051,
      "ĠMan": 2052,
      "Ġpubl": 2053,
      "ww": 2054,
      "Ġcomb": 2055,
      "15": 2056,
      "Ġmind": 2057,
      "Ġspecial": 2058,
      "par": 2059,
      "Ġplayer": 2060,
      "Ġcompan": 2061,
      "Ġsum": 2062,
      "Ġredu": 2063,
      "ply": 2064,
      "ify": 2065,
      "Ġpret": 2066,
      "Ġspace": 2067,
      "Ġbody": 2068,
      "ĠNorth": 2069,
      "On": 2070,
      "Ġattempt": 2071,
      "Ġbring": 2072,
      "lling": 2073,
      "Ġ13": 2074,
      "rug": 2075,
      "ĠBar": 2076,
      "ashington": 2077,
      "Ġ17": 2078,
      "ĠAf": 2079,
      "aper": 2080,
      "Ġelse": 2081,
      "lement": 2082,
      "go": 2083,
      "oid": 2084,
      "icult": 2085,
      "Ġfront": 2086,
      "ĠIm": 2087,
      "ches": 2088,
      "When": 2089,
      "now": 2090,
      "ĠWar": 2091,
      "ĠNational": 2092,
      "Ġtaking": 2093,
      "Ġcult": 2094,
      "viron": 2095,
      "olution": 2096,
      "Ġcou": 2097,
      "Ġconnect": 2098,
      "irl": 2099,
      "Ġpoints": 2100,
      "Ġimm": 2101,
      "Ġprobably": 2102,
      "ĠGr": 2103,
      "ĠAust": 2104,
      "ĠÂ": 2105,
      "Ġbenef": 2106,
      "____": 2107,
      "reme": 2108,
      "ĠWorld": 2109,
      "Ġsimilar": 2110,
      "Ġban": 2111,
      "over": 2112,
      "Ġcoming": 2113,
      "Ġsignific": 2114,
      "Ġcoun": 2115,
      "elt": 2116,
      "Ġblack": 2117,
      "Ġhowever": 2118,
      "yn": 2119,
      "ming": 2120,
      "That": 2121,
      "Ġnothing": 2122,
      "Ġjo": 2123,
      "Ġwa": 2124,
      "Ġdecision": 2125,
      "Ġcreate": 2126,
      "Ġconv": 2127,
      "Ġfoot": 2128,
      "Ġfire": 2129,
      "ully": 2130,
      "Ġwrote": 2131,
      "Ġlab": 2132,
      "ana": 2133,
      "ĠClinton": 2134,
      "Ġexist": 2135,
      "asing": 2136,
      "Ġfurther": 2137,
      "Ġfeat": 2138,
      "ĠCity": 2139,
      "Ġtarg": 2140,
      "Ġsw": 2141,
      "dd": 2142,
      "ĠCal": 2143,
      "Ġargu": 2144,
      "Ġenc": 2145,
      "Ġeither": 2146,
      "ĠApp": 2147,
      "Ġself": 2148,
      "Ġissues": 2149,
      "Ġdescrib": 2150,
      "Ġhouse": 2151,
      "Ġ<": 2152,
      "ĠDav": 2153,
      "Ġresearch": 2154,
      "Ġpick": 2155,
      "lier": 2156,
      "aces": 2157,
      "AN": 2158,
      "sw": 2159,
      "====": 2160,
      ".)": 2161,
      "Ġthird": 2162,
      "Ġopt": 2163,
      "Ġstep": 2164,
      "Ġstri": 2165,
      "Ġprotect": 2166,
      "Ġservice": 2167,
      "ault": 2168,
      "Ġ2017": 2169,
      "Ġ2013": 2170,
      "Ġfield": 2171,
      "Ġtra": 2172,
      "eal": 2173,
      "Ġcompl": 2174,
      "cing": 2175,
      "Ġsus": 2176,
      "Ġcustom": 2177,
      "iday": 2178,
      "IS": 2179,
      "201": 2180,
      "Ġstudents": 2181,
      "ĠHar": 2182,
      "Ġfederal": 2183,
      "ĠSu": 2184,
      "Ġsuper": 2185,
      "ĠWashington": 2186,
      "Ġ/": 2187,
      "lu": 2188,
      "ĠGe": 2189,
      "pping": 2190,
      "Ġchall": 2191,
      "ris": 2192,
      "Ġrights": 2193,
      "So": 2194,
      "Ġstop": 2195,
      "Ġtem": 2196,
      "Ġwhole": 2197,
      "Ġcompanies": 2198,
      "Ġseems": 2199,
      "Ġbegin": 2200,
      "Ġfig": 2201,
      "Ġrepl": 2202,
      "ape": 2203,
      "ively": 2204,
      "AR": 2205,
      "pecially": 2206,
      "ĠGu": 2207,
      "Ġroom": 2208,
      "Ġmass": 2209,
      "Ch": 2210,
      "Ġmeas": 2211,
      "ibility": 2212,
      "ades": 2213,
      "uation": 2214,
      "Ġposition": 2215,
      "ĠIsrael": 2216,
      "amer": 2217,
      "ilt": 2218,
      "head": 2219,
      "Ġreleased": 2220,
      "Ġeverything": 2221,
      "Ġdue": 2222,
      "Ġrelations": 2223,
      "ently": 2224,
      "ĠWith": 2225,
      "Ġsound": 2226,
      "ĠHowever": 2227,
      "mb": 2228,
      "arter": 2229,
      "ĠAss": 2230,
      "pite": 2231,
      "Ġofficials": 2232,
      "Ġprovide": 2233,
      "aul": 2234,
      "Ġabove": 2235,
      "Ġ2012": 2236,
      "ĠJan": 2237,
      "ung": 2238,
      "ĠSouth": 2239,
      "ender": 2240,
      "ĠRes": 2241,
      "Ġleaders": 2242,
      "Ġoutside": 2243,
      "Ġdam": 2244,
      "Ġtreat": 2245,
      "ĠIntern": 2246,
      "Ġtre": 2247,
      "ĠInst": 2248,
      "obal": 2249,
      "Ġdou": 2250,
      "16": 2251,
      "Ġinit": 2252,
      "ried": 2253,
      "Ġexec": 2254,
      "aced": 2255,
      "ogle": 2256,
      "vironment": 2257,
      "Ġdevelopment": 2258,
      "Ġthemselves": 2259,
      "iod": 2260,
      "Ġey": 2261,
      "ery": 2262,
      "BC": 2263,
      "oon": 2264,
      "'ll": 2265,
      "Ġrole": 2266,
      "ivil": 2267,
      "pro": 2268,
      "Ġhours": 2269,
      "Ġhimself": 2270,
      "ask": 2271,
      "Ã©": 2272,
      "lim": 2273,
      "Ġ100": 2274,
      "Ġcountries": 2275,
      "Ġstatement": 2276,
      "like": 2277,
      "14": 2278,
      "Ġstat": 2279,
      "Ġbegan": 2280,
      "Ġtrue": 2281,
      "Ġgun": 2282,
      "Ġamount": 2283,
      "Ġfinal": 2284,
      "Ġbreak": 2285,
      "Ġsignificant": 2286,
      "Ġcharacter": 2287,
      "bo": 2288,
      "lish": 2289,
      "Ġstates": 2290,
      "Ġwatch": 2291,
      "Ġmatter": 2292,
      "Ġaddress": 2293,
      "ograph": 2294,
      "ES": 2295,
      "Ġneeds": 2296,
      "Ġ25": 2297,
      "Ġversion": 2298,
      "Ġsimply": 2299,
      "Ġcand": 2300,
      "Ġdocu": 2301,
      "Ġcontinue": 2302,
      "Ġitself": 2303,
      "ran": 2304,
      "Ġcop": 2305,
      "Ġaction": 2306,
      "Ġdi": 2307,
      "Ġrepresent": 2308,
      "Ġener": 2309,
      "Ġdifficult": 2310,
      "att": 2311,
      "Ġoffice": 2312,
      "Ġground": 2313,
      "Ġlarg": 2314,
      "ids": 2315,
      "Ġmusic": 2316,
      "Ġneg": 2317,
      "Ġbecame": 2318,
      "right": 2319,
      "Ġspecific": 2320,
      "Ġbelow": 2321,
      "reg": 2322,
      "18": 2323,
      "Ġgeneral": 2324,
      "ĠPart": 2325,
      "light": 2326,
      "ogn": 2327,
      "sec": 2328,
      "Ġbuilding": 2329,
      "Ġrunning": 2330,
      "Ġwasn": 2331,
      "ĠJust": 2332,
      "ili": 2333,
      "Ġobject": 2334,
      "Ġbar": 2335,
      "acebook": 2336,
      "Ġgroups": 2337,
      "tee": 2338,
      "eks": 2339,
      "Ġpretty": 2340,
      "ream": 2341,
      "Ġtyp": 2342,
      "Ġ198": 2343,
      "Ġdest": 2344,
      "ĠEd": 2345,
      "lam": 2346,
      "ift": 2347,
      "Ġevidence": 2348,
      "ĠChina": 2349,
      "Ġlat": 2350,
      "Ġinj": 2351,
      "Ġwoman": 2352,
      "Ġinterview": 2353,
      "OR": 2354,
      "Ġrelease": 2355,
      "Ġprofess": 2356,
      "Ġ{": 2357,
      "Ġeveryone": 2358,
      "iddle": 2359,
      "umb": 2360,
      "Ġap": 2361,
      "Ġrespons": 2362,
      "Ġshows": 2363,
      "Ġinclude": 2364,
      "ĠGerman": 2365,
      "Ġball": 2366,
      "yle": 2367,
      "ournal": 2368,
      "How": 2369,
      "Ġneeded": 2370,
      "time": 2371,
      "body": 2372,
      "Ġagree": 2373,
      "Ġadministr": 2374,
      "Ġphys": 2375,
      "Ġsaw": 2376,
      "Ġquite": 2377,
      "Ġindustry": 2378,
      "AS": 2379,
      "Ġcommon": 2380,
      "Ġdeep": 2381,
      "osing": 2382,
      "Ġ|": 2383,
      "angu": 2384,
      "Ġdom": 2385,
      "Ġrad": 2386,
      "Ġsense": 2387,
      "ĠMed": 2388,
      "Ġexc": 2389,
      "Ġplaying": 2390,
      "isc": 2391,
      "Ġinstead": 2392,
      "omm": 2393,
      "Ġsite": 2394,
      "Ġplayed": 2395,
      "oring": 2396,
      "where": 2397,
      "ribut": 2398,
      "Ġaccept": 2399,
      "ãģ": 2400,
      "Ġcharg": 2401,
      "Ġdrug": 2402,
      "Ġespecially": 2403,
      "lev": 2404,
      "atur": 2405,
      "Ġlegal": 2406,
      "ĠAfter": 2407,
      "Ġrecently": 2408,
      "Ġweeks": 2409,
      "Ġtrack": 2410,
      "Ġvalue": 2411,
      "Ġconsum": 2412,
      "Ġmot": 2413,
      "ĠWill": 2414,
      "Ġfriends": 2415,
      "Ġlate": 2416,
      "Ġabs": 2417,
      "Ġhost": 2418,
      "Ġhom": 2419,
      "Ġenergy": 2420,
      "ĠHis": 2421,
      "ival": 2422,
      "Ġmag": 2423,
      "Ġperiod": 2424,
      "Ġwebs": 2425,
      "ript": 2426,
      "Ġ50": 2427,
      "Ġpain": 2428,
      "ager": 2429,
      "Ġchanges": 2430,
      "Ġple": 2431,
      "ĠNews": 2432,
      "Ġshoot": 2433,
      "Ġlo": 2434,
      "Ġcheck": 2435,
      "Ġbillion": 2436,
      "ĠAb": 2437,
      "Ġopportun": 2438,
      "ĠNot": 2439,
      "ners": 2440,
      "Ġforward": 2441,
      "Ġalleg": 2442,
      "13": 2443,
      "Ġsuff": 2444,
      "me": 2445,
      "Ġdeter": 2446,
      "ĠMus": 2447,
      "irt": 2448,
      "Ġep": 2449,
      "ccording": 2450,
      "Ġgen": 2451,
      "Ġlonger": 2452,
      "ns": 2453,
      "ancial": 2454,
      "ached": 2455,
      "Ġcode": 2456,
      "oe": 2457,
      "oke": 2458,
      "ĠDepartment": 2459,
      "Ġanim": 2460,
      "Ġlost": 2461,
      "Ġhope": 2462,
      "Ġsoon": 2463,
      "medi": 2464,
      "Ġcandid": 2465,
      "Ph": 2466,
      "Ġred": 2467,
      "Ġwrong": 2468,
      "Ġwhite": 2469,
      "fect": 2470,
      "Ġcirc": 2471,
      "Ġtit": 2472,
      "Ġeduc": 2473,
      "Ġpotential": 2474,
      "arc": 2475,
      "Ġshare": 2476,
      "17": 2477,
      "istic": 2478,
      "ĠWest": 2479,
      "Ġcred": 2480,
      "Ġhigher": 2481,
      "Ġ24": 2482,
      "epend": 2483,
      "Ġjud": 2484,
      "Ġpie": 2485,
      "str": 2486,
      "ients": 2487,
      "Ġheld": 2488,
      "Ġonline": 2489,
      "Ġeconomic": 2490,
      "Ġvote": 2491,
      "Ġfocus": 2492,
      "Ġrate": 2493,
      "Ġstay": 2494,
      "Ġblock": 2495,
      "lt": 2496,
      "alt": 2497,
      "iding": 2498,
      "Ġfavor": 2499,
      "ilities": 2500,
      "25": 2501,
      "ĠWhite": 2502,
      "Ġparent": 2503,
      "irm": 2504,
      "Ġelection": 2505,
      "Ġmoment": 2506,
      "Ġworks": 2507,
      "anger": 2508,
      "ĠMich": 2509,
      "ĠTwitter": 2510,
      "onse": 2511,
      "Ġled": 2512,
      "Ġstru": 2513,
      "ĠCong": 2514,
      "Ġwalk": 2515,
      "Ġdecl": 2516,
      "put": 2517,
      "ham": 2518,
      "oph": 2519,
      "action": 2520,
      "asons": 2521,
      "ĠMe": 2522,
      "Ġrisk": 2523,
      "Ġreview": 2524,
      "fer": 2525,
      "ĠDr": 2526,
      "ĠOct": 2527,
      "They": 2528,
      "Ġcomput": 2529,
      "ularly": 2530,
      "Ġfunction": 2531,
      "ĠMy": 2532,
      "uary": 2533,
      "ĠMarch": 2534,
      "aut": 2535,
      "icro": 2536,
      "hod": 2537,
      "ĠNe": 2538,
      "Ġpersonal": 2539,
      "Ġaud": 2540,
      "Ġage": 2541,
      "ĠEn": 2542,
      "ique": 2543,
      "Ġtarget": 2544,
      "Ġpred": 2545,
      "ĠThese": 2546,
      "Ġservices": 2547,
      "Ġce": 2548,
      "Ad": 2549,
      "Ġtotal": 2550,
      "Ġimpact": 2551,
      "haps": 2552,
      "Ġcontract": 2553,
      "Ġsold": 2554,
      "Ġpopular": 2555,
      "Al": 2556,
      "ends": 2557,
      "Ġcreated": 2558,
      "Ġrelig": 2559,
      "ctor": 2560,
      "key": 2561,
      "urd": 2562,
      "hel": 2563,
      "Ġrev": 2564,
      "Ġapplic": 2565,
      "ĠDo": 2566,
      "apan": 2567,
      "ateg": 2568,
      "Ġresults": 2569,
      "ij": 2570,
      "Ġansw": 2571,
      "ĠRepublican": 2572,
      "Ġwords": 2573,
      "Ġreve": 2574,
      "Ġminutes": 2575,
      "ĠJune": 2576,
      "overed": 2577,
      "Ġexpress": 2578,
      "Ġcannot": 2579,
      "Ġtype": 2580,
      "lege": 2581,
      "Ġproblems": 2582,
      "cil": 2583,
      "Ġanyone": 2584,
      "Ġwind": 2585,
      "iple": 2586,
      "ude": 2587,
      "ĠAustral": 2588,
      "uel": 2589,
      "ule": 2590,
      "Ġenvironment": 2591,
      "Ġarticle": 2592,
      "Ġupd": 2593,
      "ĠPar": 2594,
      "ĠPe": 2595,
      "Ġlaws": 2596,
      "ĠJuly": 2597,
      "itution": 2598,
      "hood": 2599,
      "Ġexpected": 2600,
      "reet": 2601,
      "Ġport": 2602,
      "Ġdead": 2603,
      "cle": 2604,
      "aving": 2605,
      "val": 2606,
      "ĠAug": 2607,
      "atives": 2608,
      "Ġannounced": 2609,
      "Ġnecess": 2610,
      "aging": 2611,
      "Ġ+": 2612,
      "Ġshot": 2613,
      "Ġtechnology": 2614,
      "Ġeasy": 2615,
      "ĠSyri": 2616,
      "Ġgoal": 2617,
      "ĠMond": 2618,
      "Ġprim": 2619,
      "ĠGoogle": 2620,
      "Ġbase": 2621,
      "Ġrespect": 2622,
      "Ġearlier": 2623,
      "Ġways": 2624,
      "Ġvol": 2625,
      "Ġ2011": 2626,
      "uesday": 2627,
      "ĠApr": 2628,
      "Ġet": 2629,
      "ills": 2630,
      "Ġreceived": 2631,
      "Ġpack": 2632,
      "hern": 2633,
      "Ġincrease": 2634,
      "lex": 2635,
      "Ġcases": 2636,
      "rel": 2637,
      "60": 2638,
      "Ġforce": 2639,
      "eter": 2640,
      "Ġanti": 2641,
      "EN": 2642,
      "ĠFriday": 2643,
      "Ġsurpr": 2644,
      "ĠFacebook": 2645,
      "Ġprice": 2646,
      "che": 2647,
      "Ġleave": 2648,
      "Ġprivate": 2649,
      "Ġquestions": 2650,
      "ples": 2651,
      "Ġpur": 2652,
      "Ġden": 2653,
      "Ġinvolved": 2654,
      "bit": 2655,
      "Ġcomment": 2656,
      "Ġclub": 2657,
      "ole": 2658,
      "Ġhy": 2659,
      "Ġsen": 2660,
      "To": 2661,
      "Ġstaff": 2662,
      "ĠPer": 2663,
      "bor": 2664,
      "Ġnearly": 2665,
      "ires": 2666,
      "Ġstore": 2667,
      "ĠSm": 2668,
      "ember": 2669,
      "Ġinside": 2670,
      "Ġdiv": 2671,
      "Ġaverage": 2672,
      "Ġusers": 2673,
      "ests": 2674,
      "ael": 2675,
      "mp": 2676,
      "aterial": 2677,
      "isl": 2678,
      "ĠTuesday": 2679,
      "oto": 2680,
      "Ġ>": 2681,
      "omb": 2682,
      "Ġcapt": 2683,
      "Ġoriginal": 2684,
      "ĠCongress": 2685,
      "ĠMonday": 2686,
      "Ġworkers": 2687,
      "na": 2688,
      "Ġexact": 2689,
      "Ġbecom": 2690,
      "ises": 2691,
      "Ġmodel": 2692,
      "okes": 2693,
      "Ġcontent": 2694,
      "Ġexecut": 2695,
      "Ġdefin": 2696,
      "cast": 2697,
      "Ġsource": 2698,
      "Ġresponse": 2699,
      "itiz": 2700,
      "##": 2701,
      "ĠOff": 2702,
      "ĠCour": 2703,
      "Ġkilled": 2704,
      "Ġlangu": 2705,
      "Ġrelationship": 2706,
      "aker": 2707,
      "Ġliving": 2708,
      "Ġsubject": 2709,
      "ĠSep": 2710,
      "Ġcivil": 2711,
      "Ġscient": 2712,
      "Ġworth": 2713,
      "Ġfinancial": 2714,
      "Ġinternational": 2715,
      "Ġimmedi": 2716,
      "lled": 2717,
      "ging": 2718,
      "Ġterms": 2719,
      "Ġsoft": 2720,
      "Ġ197": 2721,
      "ray": 2722,
      "ĠSan": 2723,
      "At": 2724,
      "llig": 2725,
      "joy": 2726,
      "duct": 2727,
      "Ġtext": 2728,
      "Ġ2010": 2729,
      "ips": 2730,
      "Ġgirl": 2731,
      "Ġreports": 2732,
      "Ġmid": 2733,
      "ĠAmericans": 2734,
      "Ġworked": 2735,
      "Ġur": 2736,
      "Ġestab": 2737,
      "Ġfans": 2738,
      "Ġheart": 2739,
      "ĠJapan": 2740,
      "ĠApril": 2741,
      "order": 2742,
      "Ġbroad": 2743,
      "ĠCount": 2744,
      "Ġinflu": 2745,
      "Ġobs": 2746,
      "ĠPal": 2747,
      "Ġterror": 2748,
      "ĠWed": 2749,
      "Ġoil": 2750,
      "ky": 2751,
      "Ġrespond": 2752,
      "Ġcoll": 2753,
      "Ġarrest": 2754,
      "Ġplans": 2755,
      "ĠAct": 2756,
      "Ġlack": 2757,
      "ops": 2758,
      "Ġnation": 2759,
      "Ġdecided": 2760,
      "Ġdel": 2761,
      "ech": 2762,
      "Ġrequire": 2763,
      "tember": 2764,
      "ovember": 2765,
      "ĠWhile": 2766,
      "atural": 2767,
      "Ġglobal": 2768,
      "mon": 2769,
      "rought": 2770,
      "Ġability": 2771,
      "Ġfem": 2772,
      "....": 2773,
      "Ġtou": 2774,
      "vertise": 2775,
      "ites": 2776,
      "Ġtakes": 2777,
      "Ġcal": 2778,
      "Ġ@": 2779,
      "ĠSome": 2780,
      "Ġdirector": 2781,
      "Ġchance": 2782,
      "oor": 2783,
      "Ġphone": 2784,
      "izing": 2785,
      "istrict": 2786,
      "Ġlives": 2787,
      "Ġtal": 2788,
      "ĠRed": 2789,
      "Ġgoes": 2790,
      "One": 2791,
      "Ġoffer": 2792,
      "Ġsimple": 2793,
      "Ġrace": 2794,
      "Ġforeign": 2795,
      "ĠCor": 2796,
      "Ġbuy": 2797,
      "Ġlog": 2798,
      "\".": 2799,
      "Ġsqu": 2800,
      "Ġcapital": 2801,
      "Ġpublished": 2802,
      "ĠGeor": 2803,
      "40": 2804,
      "rect": 2805,
      "Ġcollect": 2806,
      "Ġassoci": 2807,
      "nesday": 2808,
      "osition": 2809,
      "usion": 2810,
      "Ġengine": 2811,
      "ursday": 2812,
      "Ġvia": 2813,
      "ĠGod": 2814,
      "ological": 2815,
      "based": 2816,
      "Ġteams": 2817,
      "Ġgave": 2818,
      "Ġcurrently": 2819,
      "aur": 2820,
      "Ġroad": 2821,
      "Ġintrodu": 2822,
      "Ġhappened": 2823,
      "ĠDavid": 2824,
      "Ġemer": 2825,
      "rain": 2826,
      "ĠEl": 2827,
      "oud": 2828,
      "Ġpage": 2829,
      "rown": 2830,
      "Ġperformance": 2831,
      "ĠSund": 2832,
      "ety": 2833,
      "Ġsituation": 2834,
      "Ġ40": 2835,
      "Ġaffect": 2836,
      "Ġbank": 2837,
      "iction": 2838,
      "Ġarri": 2839,
      "Ġmother": 2840,
      "Ġwhose": 2841,
      "ees": 2842,
      "ĠAg": 2843,
      "lin": 2844,
      "Ġquickly": 2845,
      "ought": 2846,
      "Ġrecogn": 2847,
      "Ġindic": 2848,
      "ĠJanuary": 2849,
      "Ġapproach": 2850,
      "chie": 2851,
      "Ġcouple": 2852,
      "Ġpict": 2853,
      "ights": 2854,
      "ĠNow": 2855,
      "Ġparticip": 2856,
      "Ġemail": 2857,
      "Ġwebsite": 2858,
      "Ġadministration": 2859,
      "ĠBy": 2860,
      "Ġmeeting": 2861,
      "Ġhttp": 2862,
      "Ġregard": 2863,
      "Ġhuge": 2864,
      "Ġmember": 2865,
      "Ġtool": 2866,
      "Ġdeli": 2867,
      "Ġnetwork": 2868,
      "ĠRussia": 2869,
      "fully": 2870,
      "Ġcy": 2871,
      "ĠCalif": 2872,
      "\",": 2873,
      "Ġturned": 2874,
      "ĠWednesday": 2875,
      "Ġweap": 2876,
      "oved": 2877,
      "Ġmaterial": 2878,
      "Ġproduction": 2879,
      "ĠNovember": 2880,
      "apt": 2881,
      "ĠThursday": 2882,
      "Ġimprove": 2883,
      "ese": 2884,
      "bl": 2885,
      "undred": 2886,
      "istan": 2887,
      "face": 2888,
      "Ġpers": 2889,
      "iment": 2890,
      "ĠSeptember": 2891,
      "ĠHill": 2892,
      "ume": 2893,
      "Ġnorm": 2894,
      "Ġcell": 2895,
      "ĠTV": 2896,
      "ĠFeb": 2897,
      "Ġill": 2898,
      "Ġtrade": 2899,
      "eed": 2900,
      "uses": 2901,
      "Ġfelt": 2902,
      "aily": 2903,
      "Ġareas": 2904,
      "unt": 2905,
      "ĠSch": 2906,
      "set": 2907,
      "Ġeconomy": 2908,
      "Ġvictim": 2909,
      "Ġmis": 2910,
      "Ġtravel": 2911,
      "Ġround": 2912,
      "Ġmethod": 2913,
      "ruction": 2914,
      "Ġpull": 2915,
      "ĠPaul": 2916,
      "Ġnumbers": 2917,
      "ĠAfric": 2918,
      "ĠQu": 2919,
      "Ġloss": 2920,
      "ino": 2921,
      "ĠGl": 2922,
      "Ġbuilt": 2923,
      "Ġperfect": 2924,
      "down": 2925,
      "Ġhon": 2926,
      "Ġevents": 2927,
      "ĠAng": 2928,
      "Ġfather": 2929,
      "Ġcareer": 2930,
      "cember": 2931,
      "ED": 2932,
      "Ġmatch": 2933,
      "ps": 2934,
      "Ġord": 2935,
      "ĠBritish": 2936,
      "Ġbehav": 2937,
      "ructure": 2938,
      "Sh": 2939,
      "raz": 2940,
      "Ġheard": 2941,
      "Ġincluded": 2942,
      "Ġenjoy": 2943,
      "Ġneigh": 2944,
      "Ġdig": 2945,
      "Ġwants": 2946,
      "Ġbi": 2947,
      "Ġ22": 2948,
      "Ġallowed": 2949,
      "AL": 2950,
      "ĠCanada": 2951,
      "orters": 2952,
      "Ġfre": 2953,
      "ĠEuropean": 2954,
      "Ġthous": 2955,
      "Ġrepe": 2956,
      "With": 2957,
      "avy": 2958,
      "load": 2959,
      "ened": 2960,
      "Ġboy": 2961,
      "Ġlower": 2962,
      "Ġwide": 2963,
      "Ġcover": 2964,
      "Ġsecret": 2965,
      "âĢĿ.": 2966,
      "gest": 2967,
      "Ġgets": 2968,
      "hold": 2969,
      "ĠSunday": 2970,
      "ĠAugust": 2971,
      "ĠCourt": 2972,
      "Ġ21": 2973,
      "Ġsize": 2974,
      "Ġsepar": 2975,
      "ĠPark": 2976,
      "ornia": 2977,
      "anks": 2978,
      "Ġlink": 2979,
      "24": 2980,
      "ening": 2981,
      "IT": 2982,
      "Ġparticular": 2983,
      "Ġreveal": 2984,
      "Ġboard": 2985,
      ");": 2986,
      "ĠIS": 2987,
      "Ġtried": 2988,
      "Ġprogress": 2989,
      "ĠIslam": 2990,
      "Ġpoll": 2991,
      "Ġste": 2992,
      "IC": 2993,
      "Ġcontact": 2994,
      "ession": 2995,
      "OS": 2996,
      "inks": 2997,
      "Ġhot": 2998,
      "Ġvisit": 2999,
      "Ġtown": 3000,
      "Ġreach": 3001,
      "agement": 3002,
      "Ġhands": 3003,
      "ibr": 3004,
      "ctions": 3005,
      "Ġmovement": 3006,
      "idents": 3007,
      "ground": 3008,
      "Ġbrought": 3009,
      "Ġlegisl": 3010,
      "Ġvarious": 3011,
      "Ġbud": 3012,
      "Ġspent": 3013,
      "200": 3014,
      "force": 3015,
      "cies": 3016,
      "Ġcause": 3017,
      "Ġpopulation": 3018,
      "ĠPost": 3019,
      "Ġtraining": 3020,
      "ceed": 3021,
      "ences": 3022,
      "Ġmention": 3023,
      "Ġspeak": 3024,
      "Ġess": 3025,
      "Ġsong": 3026,
      "Ġlooks": 3027,
      "ĠSw": 3028,
      "Ġknew": 3029,
      "ibly": 3030,
      "Ġattention": 3031,
      "ĠOctober": 3032,
      "Ġcard": 3033,
      "Ġprevious": 3034,
      "Ġveh": 3035,
      "After": 3036,
      "Ġforces": 3037,
      "Ġfast": 3038,
      "ĠDecember": 3039,
      "Ġens": 3040,
      "Ġrac": 3041,
      "alled": 3042,
      "Ġ}": 3043,
      "While": 3044,
      "99": 3045,
      "AC": 3046,
      "Ġdemand": 3047,
      "iam": 3048,
      "yond": 3049,
      "ification": 3050,
      "Ġreb": 3051,
      "80": 3052,
      "idered": 3053,
      "atory": 3054,
      "ĠUK": 3055,
      "arily": 3056,
      "estern": 3057,
      "Ġ*": 3058,
      "Ġfair": 3059,
      "Ġlatest": 3060,
      "Ġ23": 3061,
      "ishing": 3062,
      "Ġfeatures": 3063,
      "come": 3064,
      "Ġcoach": 3065,
      "Ġrules": 3066,
      "Ġ...": 3067,
      "ze": 3068,
      "Re": 3069,
      "iant": 3070,
      "Ġvo": 3071,
      "Ġfear": 3072,
      "ĠHer": 3073,
      "ledge": 3074,
      "urning": 3075,
      "uf": 3076,
      "aries": 3077,
      "Ġdemon": 3078,
      "Ġstrugg": 3079,
      "ille": 3080,
      "Ġfell": 3081,
      "ĠCalifornia": 3082,
      "field": 3083,
      "?âĢĿ": 3084,
      "Ġspeed": 3085,
      "Ġimmigr": 3086,
      "Ġgrowth": 3087,
      "Ġmedical": 3088,
      "de": 3089,
      "'d": 3090,
      "Ġmorning": 3091,
      "Ġliber": 3092,
      "Ġaddition": 3093,
      "Ġhundred": 3094,
      "Ġsearch": 3095,
      "ĠStreet": 3096,
      "omp": 3097,
      "ecause": 3098,
      "ĠKore": 3099,
      "Ġimage": 3100,
      "ĠBlack": 3101,
      "Ġbox": 3102,
      "Ġseven": 3103,
      "Ġleader": 3104,
      "Ġachie": 3105,
      "eth": 3106,
      "aph": 3107,
      "Ġindepend": 3108,
      "ma": 3109,
      "sequ": 3110,
      "Ġsystems": 3111,
      "Ġparents": 3112,
      "wo": 3113,
      "arth": 3114,
      "ondon": 3115,
      "ĠCenter": 3116,
      "Ġhor": 3117,
      "ĠCont": 3118,
      "ĠSenate": 3119,
      "Ġinn": 3120,
      "Ġmach": 3121,
      "Ġsurve": 3122,
      "icles": 3123,
      "aturday": 3124,
      "Ġsn": 3125,
      "Ġprep": 3126,
      "Ġpen": 3127,
      "US": 3128,
      "Ġtalking": 3129,
      "vent": 3130,
      "Ġcitiz": 3131,
      "pir": 3132,
      "ĠTimes": 3133,
      "Ġupon": 3134,
      "atform": 3135,
      "Ġlevels": 3136,
      "Ġdoll": 3137,
      "Ġconsidered": 3138,
      "Ġseek": 3139,
      "Ġ2008": 3140,
      "Ġsort": 3141,
      "idge": 3142,
      "unk": 3143,
      "Ġund": 3144,
      "Ġstar": 3145,
      "Ġexam": 3146,
      "oo": 3147,
      "Tr": 3148,
      "ĠPat": 3149,
      "22": 3150,
      "Ġsafe": 3151,
      "ges": 3152,
      "imately": 3153,
      "uk": 3154,
      "ope": 3155,
      "sych": 3156,
      "Ġcritic": 3157,
      "ĠCounty": 3158,
      "Ġextreme": 3159,
      "ĠParty": 3160,
      "ĠIndia": 3161,
      "Ġquarter": 3162,
      "Ġslow": 3163,
      "Ġwritten": 3164,
      "imin": 3165,
      "bed": 3166,
      "tr": 3167,
      "Ġmessage": 3168,
      "Ġwond": 3169,
      "Ġlearn": 3170,
      "ĠKing": 3171,
      "Ġinvestigation": 3172,
      "Ġspokes": 3173,
      "entially": 3174,
      "ĠSpe": 3175,
      "Ġresour": 3176,
      "Ġinteresting": 3177,
      "Ġviolence": 3178,
      "ani": 3179,
      "Ġson": 3180,
      "ĠRussian": 3181,
      "Ġhear": 3182,
      "Ġprior": 3183,
      "Ġincreasing": 3184,
      "Ġcompletely": 3185,
      "Ġopportunity": 3186,
      "Ġconserv": 3187,
      "ĠChar": 3188,
      "Ġguy": 3189,
      "Ġjobs": 3190,
      "vertisement": 3191,
      "anced": 3192,
      "fl": 3193,
      "itch": 3194,
      "Ġuser": 3195,
      "Ġprevent": 3196,
      "Ġrange": 3197,
      "erve": 3198,
      "lligence": 3199,
      "Ġserious": 3200,
      "nces": 3201,
      "Ġpaid": 3202,
      "eared": 3203,
      "Ġdraw": 3204,
      "Ġlanguage": 3205,
      "icks": 3206,
      "aming": 3207,
      "Ġsurv": 3208,
      "ruary": 3209,
      "ÂŃ": 3210,
      "rast": 3211,
      "het": 3212,
      "Ġsens": 3213,
      "Ġconduct": 3214,
      "uit": 3215,
      "ĠMon": 3216,
      "lear": 3217,
      "ĠEast": 3218,
      "raq": 3219,
      "Ġlay": 3220,
      "lying": 3221,
      "Ġdocument": 3222,
      "Ġpaper": 3223,
      "ĠTex": 3224,
      "ett": 3225,
      "eff": 3226,
      "Ġhistor": 3227,
      "Ġdespite": 3228,
      "iers": 3229,
      "Ġdoub": 3230,
      "Ġanswer": 3231,
      "ysis": 3232,
      "Ġdetails": 3233,
      "Ġjournal": 3234,
      "Ġ2009": 3235,
      "erc": 3236,
      "Ġprison": 3237,
      "Ġscreen": 3238,
      "Ġparticularly": 3239,
      "Ġsociety": 3240,
      "ĠMark": 3241,
      "Ġconc": 3242,
      "coin": 3243,
      "Ġmovie": 3244,
      "ĠMuslim": 3245,
      "She": 3246,
      "Ġaren": 3247,
      "Ġclaims": 3248,
      "Ġproducts": 3249,
      "ico": 3250,
      "Ġquality": 3251,
      "Ġrequired": 3252,
      "Ġmajority": 3253,
      "ĠLondon": 3254,
      "ĠSaturday": 3255,
      "illed": 3256,
      "Ġbiggest": 3257,
      "Ġpurch": 3258,
      "Ġeffort": 3259,
      "Ġexactly": 3260,
      "ining": 3261,
      "Ġeight": 3262,
      "Ġsexual": 3263,
      "Ġobv": 3264,
      "OP": 3265,
      "isions": 3266,
      "add": 3267,
      "Ġmodern": 3268,
      "ari": 3269,
      "Ġterm": 3270,
      "Ġaw": 3271,
      "rench": 3272,
      "Ġexcept": 3273,
      "Ġstuff": 3274,
      "Ġstarting": 3275,
      "Ġexperien": 3276,
      "Ġscience": 3277,
      "AA": 3278,
      "Ġextra": 3279,
      "inese": 3280,
      "ĠMcC": 3281,
      "ously": 3282,
      "utions": 3283,
      "Ġattacks": 3284,
      "oses": 3285,
      "ĠEm": 3286,
      "room": 3287,
      "Ġlooked": 3288,
      "][": 3289,
      "Ġremain": 3290,
      "Ġregul": 3291,
      "Ġcarry": 3292,
      "Ġfix": 3293,
      "pper": 3294,
      "ĠNet": 3295,
      "Ġimag": 3296,
      "Ġdefense": 3297,
      "obile": 3298,
      "Ġfinally": 3299,
      "ĠMore": 3300,
      "Ġstories": 3301,
      "reedom": 3302,
      "Ġstandard": 3303,
      "Ġleading": 3304,
      "sp": 3305,
      "Ġdro": 3306,
      "Ġsummer": 3307,
      "Ġtable": 3308,
      "Ġprovided": 3309,
      "abor": 3310,
      "Ġparts": 3311,
      "asc": 3312,
      "Ġeducation": 3313,
      "ĠGener": 3314,
      "ĠKe": 3315,
      "Ġfit": 3316,
      "ha": 3317,
      "yl": 3318,
      "Ġcommunic": 3319,
      "Ġgiving": 3320,
      "Ġones": 3321,
      "Ġcross": 3322,
      "Ġnatural": 3323,
      "Ġconvers": 3324,
      "Ġremains": 3325,
      "Ġofficers": 3326,
      "Ġavoid": 3327,
      "aly": 3328,
      "Ġfile": 3329,
      "Ġ27": 3330,
      "RE": 3331,
      "arr": 3332,
      "ĠIraq": 3333,
      "ĠTur": 3334,
      "aught": 3335,
      "Ġcamer": 3336,
      "Ġmiddle": 3337,
      "ĠDonald": 3338,
      "inally": 3339,
      "mitted": 3340,
      "Ġ28": 3341,
      "Ġcosts": 3342,
      "ĠFirst": 3343,
      "ĠLeague": 3344,
      "Ġgas": 3345,
      "Ġpractice": 3346,
      "Ġment": 3347,
      "Ġmultiple": 3348,
      "ĠIran": 3349,
      "Ġcertainly": 3350,
      "hib": 3351,
      "Ġshowed": 3352,
      "FL": 3353,
      "23": 3354,
      "AM": 3355,
      "ension": 3356,
      "Ġgrowing": 3357,
      "fort": 3358,
      "ux": 3359,
      "ĠFebruary": 3360,
      "No": 3361,
      "ny": 3362,
      "ida": 3363,
      "Ġcomments": 3364,
      "Ġincreased": 3365,
      "ĠSoc": 3366,
      "Ġnamed": 3367,
      "aves": 3368,
      "anch": 3369,
      "Ġcalls": 3370,
      "Ġsometimes": 3371,
      "Ġdied": 3372,
      "----------------": 3373,
      "hest": 3374,
      "ago": 3375,
      "Ġdescribed": 3376,
      "Ġthinking": 3377,
      "ĠJew": 3378,
      "ĠEven": 3379,
      "Ġrequest": 3380,
      "ospital": 3381,
      "Ġult": 3382,
      "akers": 3383,
      "Ġchief": 3384,
      "Ġregion": 3385,
      "Ġusually": 3386,
      "Ġclimate": 3387,
      "Ġplatform": 3388,
      "Ġready": 3389,
      "ĠMichael": 3390,
      "ĠMor": 3391,
      "Ġdamage": 3392,
      "Ġimplement": 3393,
      "oman": 3394,
      "Ġhous": 3395,
      "Ġperhaps": 3396,
      "Ġitem": 3397,
      "ĠSand": 3398,
      "Ġchanged": 3399,
      "Ġassist": 3400,
      "Ġpoor": 3401,
      "Ġdirectly": 3402,
      "Ġdanger": 3403,
      "ables": 3404,
      "arian": 3405,
      "Ġ(@": 3406,
      "ĠCoun": 3407,
      "Ġeffects": 3408,
      "Ġpurp": 3409,
      "ĠSer": 3410,
      "Ġ26": 3411,
      "Ġwriting": 3412,
      "Ġepis": 3413,
      "agon": 3414,
      "Ġmill": 3415,
      "ĠDes": 3416,
      "Ġincludes": 3417,
      "Im": 3418,
      "Ġcontinued": 3419,
      "Ġguys": 3420,
      "Ġspot": 3421,
      "Ġmaintain": 3422,
      "Ġselect": 3423,
      "Ġalthough": 3424,
      "Ġsle": 3425,
      "Ġreality": 3426,
      "inary": 3427,
      "Ġoccur": 3428,
      "using": 3429,
      "Ġefforts": 3430,
      "Ġblood": 3431,
      "Ġalone": 3432,
      "Ġscore": 3433,
      "ĠJames": 3434,
      "Ġwrite": 3435,
      "Ġten": 3436,
      "Ġculture": 3437,
      "ĠII": 3438,
      "Ġreading": 3439,
      "Ġvoters": 3440,
      "Ġwouldn": 3441,
      "Ġthroughout": 3442,
      "ĠBill": 3443,
      "tered": 3444,
      "Ġunf": 3445,
      "Ġchalleng": 3446,
      "Ġbeyond": 3447,
      "35": 3448,
      "Ġimmediately": 3449,
      "ilies": 3450,
      "Ġconsist": 3451,
      "ĠChinese": 3452,
      "ĠDemocratic": 3453,
      "enge": 3454,
      "Ġcele": 3455,
      "Ġblog": 3456,
      "Ġtowards": 3457,
      "Ġpath": 3458,
      "Ġpan": 3459,
      "itor": 3460,
      "Ġdesigned": 3461,
      "Ġclos": 3462,
      "icated": 3463,
      "Ġcorpor": 3464,
      "All": 3465,
      "wise": 3466,
      "ĠTH": 3467,
      "Ġspeech": 3468,
      "Ġstudent": 3469,
      "oper": 3470,
      "Ġil": 3471,
      "Ġrecomm": 3472,
      "Ġrob": 3473,
      "Ġcenter": 3474,
      "rowd": 3475,
      "Ġsell": 3476,
      "ĠIndian": 3477,
      "ĠAssoci": 3478,
      "urt": 3479,
      "itute": 3480,
      "Ġlaunch": 3481,
      "imum": 3482,
      "Ġahead": 3483,
      "Ġadditional": 3484,
      "oul": 3485,
      "Ġproperty": 3486,
      "ĠRepublicans": 3487,
      "ĠApple": 3488,
      "Ġsafety": 3489,
      "Ġrelative": 3490,
      "Ġcomplex": 3491,
      "ĠStar": 3492,
      "ĠChe": 3493,
      "zz": 3494,
      "Ġagency": 3495,
      "Ġchoice": 3496,
      "ĠTexas": 3497,
      "iles": 3498,
      "Ġconcept": 3499,
      "OT": 3500,
      "Ġcopy": 3501,
      "ara": 3502,
      "Ġsoftware": 3503,
      "ĠCons": 3504,
      "ression": 3505,
      "pre": 3506,
      "Ġresearc": 3507,
      "astic": 3508,
      "Ġâ": 3509,
      "Ġver": 3510,
      "iminal": 3511,
      "Ġpressure": 3512,
      "ĠPlay": 3513,
      "emy": 3514,
      "Ġtro": 3515,
      "ĠBo": 3516,
      "Ġgone": 3517,
      "aches": 3518,
      "rupt": 3519,
      "icient": 3520,
      "Ġofficer": 3521,
      "icted": 3522,
      "yan": 3523,
      "Ġfootball": 3524,
      "Ġreceive": 3525,
      "Ġoption": 3526,
      "new": 3527,
      "27": 3528,
      "ford": 3529,
      "omen": 3530,
      "Now": 3531,
      "Ġcounter": 3532,
      "Ġhelped": 3533,
      "Ġscene": 3534,
      "Ġopin": 3535,
      "ports": 3536,
      "Ġcouldn": 3537,
      "airs": 3538,
      "Ġthousands": 3539,
      "irth": 3540,
      "Ġpiece": 3541,
      "olute": 3542,
      "Ġwife": 3543,
      "oes": 3544,
      "Ġbattle": 3545,
      "ĠGreen": 3546,
      "men": 3547,
      "Ġhappy": 3548,
      "Ġdisapp": 3549,
      "Ġtoward": 3550,
      "ĠServ": 3551,
      "Ġkids": 3552,
      "Ġstage": 3553,
      "Ġsil": 3554,
      "Ġcat": 3555,
      "Ġarch": 3556,
      "ĠDay": 3557,
      "Ġreasons": 3558,
      "Ġfigure": 3559,
      "ĠThen": 3560,
      "Ġconditions": 3561,
      "Ġswe": 3562,
      "more": 3563,
      "ander": 3564,
      "orks": 3565,
      "HA": 3566,
      "board": 3567,
      "Ġut": 3568,
      "Ġ60": 3569,
      "Ġencour": 3570,
      "amb": 3571,
      "Ġdebate": 3572,
      "Ġtour": 3573,
      "Ġdevice": 3574,
      "Ġbrain": 3575,
      "Ġtitle": 3576,
      "roy": 3577,
      "Ġwall": 3578,
      "Ġpark": 3579,
      "Ġcompared": 3580,
      "wood": 3581,
      "Ġlimited": 3582,
      "ĠMinister": 3583,
      "Ġcharacters": 3584,
      "45": 3585,
      "Ġaim": 3586,
      "ufact": 3587,
      "ĠJack": 3588,
      "29": 3589,
      "atever": 3590,
      "ID": 3591,
      "Ġremember": 3592,
      "Ġleague": 3593,
      "AD": 3594,
      "Ġfan": 3595,
      "Ġletter": 3596,
      "Ġsal": 3597,
      "ston": 3598,
      "Ġband": 3599,
      "):": 3600,
      "BI": 3601,
      "Ġbudget": 3602,
      "Ġign": 3603,
      "Ġcris": 3604,
      "Ġmeaning": 3605,
      "ĠVal": 3606,
      "ĠDis": 3607,
      "Ġfailed": 3608,
      "Ġdate": 3609,
      "Ġdrive": 3610,
      "Ġdark": 3611,
      "ĠHere": 3612,
      "Ġrock": 3613,
      "Ġcomputer": 3614,
      "Ġcool": 3615,
      "Ġsubst": 3616,
      "ivity": 3617,
      "Ġdemonstr": 3618,
      "Ġtouch": 3619,
      "uclear": 3620,
      "ban": 3621,
      "Ġalleged": 3622,
      "just": 3623,
      "urg": 3624,
      "Ġorganization": 3625,
      "ĠâĢ¦": 3626,
      "ampions": 3627,
      "Ġbal": 3628,
      "ĠWind": 3629,
      "Ġmoved": 3630,
      "Ġphysical": 3631,
      "Ġthrow": 3632,
      "Ġx": 3633,
      "Ġsat": 3634,
      "Ġpassed": 3635,
      "Ġmoving": 3636,
      "Ġclean": 3637,
      "Ġnom": 3638,
      "Ġestim": 3639,
      "ĠSuper": 3640,
      "Ġappears": 3641,
      "Ġsche": 3642,
      "Ġbeginning": 3643,
      "lease": 3644,
      "Ġfamilies": 3645,
      "aint": 3646,
      "ĠRich": 3647,
      "ĠRober": 3648,
      "Ġprec": 3649,
      "Ġfeature": 3650,
      "Ġsuspect": 3651,
      "ĠSim": 3652,
      "Ġnature": 3653,
      "Ġincome": 3654,
      "itation": 3655,
      "Ġbott": 3656,
      "raight": 3657,
      "Ġbooks": 3658,
      "Ġpowerful": 3659,
      "Ġgives": 3660,
      "chan": 3661,
      "Ġmaybe": 3662,
      "Ġallows": 3663,
      "Ġcentury": 3664,
      "ustr": 3665,
      "rief": 3666,
      "Cl": 3667,
      "Ġnote": 3668,
      "ocked": 3669,
      "Ġsmart": 3670,
      "ĠEnglish": 3671,
      "Ġdifference": 3672,
      "Ġconference": 3673,
      "Ġeasily": 3674,
      "Ġtrust": 3675,
      "Ġlargest": 3676,
      "enty": 3677,
      "Ġtreatment": 3678,
      "Ġdeg": 3679,
      "Ġcontribut": 3680,
      "Ġaware": 3681,
      "Ġforced": 3682,
      "Ġpositive": 3683,
      "Ġnecessary": 3684,
      "By": 3685,
      "Ġstreng": 3686,
      "aughter": 3687,
      "ĠAir": 3688,
      "Ġdog": 3689,
      "Ġrefer": 3690,
      "ĠAustralia": 3691,
      "Ġschools": 3692,
      "ĠOf": 3693,
      "Ġilleg": 3694,
      "26": 3695,
      "EC": 3696,
      "Ġyes": 3697,
      "ĠPolice": 3698,
      "ĠBer": 3699,
      "SA": 3700,
      "Ġcollege": 3701,
      "ĠBen": 3702,
      "Ġcredit": 3703,
      "venue": 3704,
      "Ġnice": 3705,
      "ĠFrench": 3706,
      "Is": 3707,
      "bum": 3708,
      "Ġeventually": 3709,
      "Ġconfir": 3710,
      "Ġmyself": 3711,
      "Ġanaly": 3712,
      "Ġcrowd": 3713,
      "Ġtwe": 3714,
      "Ġcorrect": 3715,
      "ĠMart": 3716,
      "aud": 3717,
      "?\"": 3718,
      "Ġmix": 3719,
      "Ġdisp": 3720,
      "ĠTor": 3721,
      "Be": 3722,
      "ĠGovern": 3723,
      "Ġrates": 3724,
      "Ġexecutive": 3725,
      "Ġautom": 3726,
      "28": 3727,
      "Ġdetail": 3728,
      "Advertisement": 3729,
      "========": 3730,
      "Ġcustomers": 3731,
      "Ġcentral": 3732,
      "Ġshown": 3733,
      "ube": 3734,
      "ĠPM": 3735,
      "Ġdisplay": 3736,
      "Ġadvant": 3737,
      "ĠDemocrats": 3738,
      "Ġesc": 3739,
      "Ġcast": 3740,
      "My": 3741,
      "Ġspending": 3742,
      "21": 3743,
      "Ġ29": 3744,
      "ĠJer": 3745,
      "Ġeyes": 3746,
      "Ġpus": 3747,
      "Ġmeant": 3748,
      "cul": 3749,
      "Ġlif": 3750,
      "Ġoverall": 3751,
      "Ġlic": 3752,
      "Ġprograms": 3753,
      "Ġsigned": 3754,
      "uty": 3755,
      "Ġsales": 3756,
      "Ġpresidential": 3757,
      "rs": 3758,
      "ĠInternet": 3759,
      "Ġdraft": 3760,
      "resh": 3761,
      "Ġcitizens": 3762,
      "ken": 3763,
      "Ġuses": 3764,
      "ressed": 3765,
      "Ġ;": 3766,
      "Ġyourself": 3767,
      "iable": 3768,
      "encies": 3769,
      "ĠSchool": 3770,
      "Ġcelebr": 3771,
      "ĠBel": 3772,
      "Ġsave": 3773,
      "ĠCap": 3774,
      "itely": 3775,
      "Ġtruth": 3776,
      "Ġanalysis": 3777,
      "Ġsenior": 3778,
      "Ġsusp": 3779,
      "berg": 3780,
      "Ġprojects": 3781,
      "________": 3782,
      "OM": 3783,
      "Ġreligious": 3784,
      "Ġdecades": 3785,
      "Ġbenefits": 3786,
      "orney": 3787,
      "Ġgrad": 3788,
      "Ġdoor": 3789,
      "Ġcrime": 3790,
      "Ġunique": 3791,
      "Ġhar": 3792,
      "Ġideas": 3793,
      "Ġfrequ": 3794,
      "New": 3795,
      "Ġcontinues": 3796,
      "33": 3797,
      "Ġrelated": 3798,
      "ares": 3799,
      "Ġtraff": 3800,
      "Ġpromot": 3801,
      "Ġdrop": 3802,
      "Ġfirm": 3803,
      "Ġappeared": 3804,
      "According": 3805,
      "mar": 3806,
      "Ġrule": 3807,
      "ĠSyria": 3808,
      "Some": 3809,
      "osh": 3810,
      "Ġpreviously": 3811,
      "Ġmanager": 3812,
      "iance": 3813,
      "Ġfollowed": 3814,
      "Ġbrother": 3815,
      "Ġfavorite": 3816,
      "ĠGeneral": 3817,
      "Ġnoted": 3818,
      "Don": 3819,
      "Ġpsych": 3820,
      "cient": 3821,
      "change": 3822,
      "www": 3823,
      "Ġmanufact": 3824,
      "Ġmeasure": 3825,
      "Ġcrisis": 3826,
      "band": 3827,
      "Ġcandidate": 3828,
      "Ġapparent": 3829,
      "ki": 3830,
      "Ġshooting": 3831,
      "Ġaltern": 3832,
      "iring": 3833,
      "Ġlines": 3834,
      "Ġprem": 3835,
      "ET": 3836,
      "Ġstraight": 3837,
      "AP": 3838,
      "Ġactions": 3839,
      "ĠCr": 3840,
      "orter": 3841,
      "oday": 3842,
      "ĠGold": 3843,
      "craft": 3844,
      "etro": 3845,
      "Ġdeveloped": 3846,
      "Ġoptions": 3847,
      "Ġele": 3848,
      "Ġspread": 3849,
      "ĠMex": 3850,
      "Ġhighly": 3851,
      "urance": 3852,
      "attle": 3853,
      "Ġfeed": 3854,
      "ĠInternational": 3855,
      "Ġpolitics": 3856,
      "Ġsuccessful": 3857,
      "nown": 3858,
      "ville": 3859,
      "ĠUp": 3860,
      "Ġresources": 3861,
      "ĠGeorge": 3862,
      "onent": 3863,
      "que": 3864,
      "ĠAngel": 3865,
      "Ġexpand": 3866,
      "iny": 3867,
      "Ġbeaut": 3868,
      "Ġreached": 3869,
      "Ġmist": 3870,
      "Ġcharge": 3871,
      "ingly": 3872,
      "ĠEarth": 3873,
      "ĠComp": 3874,
      "ser": 3875,
      "Ġstatus": 3876,
      "roll": 3877,
      "ategy": 3878,
      "Ġclearly": 3879,
      "Ġindividuals": 3880,
      "Ġattract": 3881,
      "Ġsend": 3882,
      "Ġcolor": 3883,
      "Ġfully": 3884,
      "Ġreform": 3885,
      "Ġrap": 3886,
      "EO": 3887,
      "box": 3888,
      "Ġconflic": 3889,
      "ĠBre": 3890,
      "onents": 3891,
      "ĠMac": 3892,
      "erved": 3893,
      "ĠFlor": 3894,
      "Ġlarger": 3895,
      "Ġsto": 3896,
      "Ar": 3897,
      "inated": 3898,
      "Ġgoals": 3899,
      "Ġdise": 3900,
      "ĠAdd": 3901,
      "uman": 3902,
      "antly": 3903,
      "riage": 3904,
      "vere": 3905,
      "oti": 3906,
      "Ġweb": 3907,
      "Ġseemed": 3908,
      "Ġpeace": 3909,
      "Ġregular": 3910,
      "ĠArab": 3911,
      "Ġgreater": 3912,
      "http": 3913,
      "ifying": 3914,
      "Ġknows": 3915,
      "mark": 3916,
      "ero": 3917,
      "owers": 3918,
      "ength": 3919,
      "Ġpatients": 3920,
      "Ġspir": 3921,
      "Ġcities": 3922,
      "while": 3923,
      "Ġprices": 3924,
      "ĠGermany": 3925,
      "agn": 3926,
      "icit": 3927,
      "Ġalbum": 3928,
      "clus": 3929,
      "sey": 3930,
      "org": 3931,
      "part": 3932,
      "icago": 3933,
      "Ġemot": 3934,
      "Le": 3935,
      "Ġprint": 3936,
      "Ġnuclear": 3937,
      "Ġowners": 3938,
      "ĠEngland": 3939,
      "Ġchallenge": 3940,
      "ĠÂ£": 3941,
      "Ġspend": 3942,
      "Ġactivity": 3943,
      "inn": 3944,
      "wide": 3945,
      "Ġ196": 3946,
      "Ġfighting": 3947,
      "iced": 3948,
      "Ġprimary": 3949,
      "ota": 3950,
      "70": 3951,
      "ĠEvery": 3952,
      "44": 3953,
      "ĠTom": 3954,
      "ĠHam": 3955,
      "Ġknowledge": 3956,
      "levision": 3957,
      "ĠHigh": 3958,
      "Ġincident": 3959,
      "Ġintelligence": 3960,
      "Ġhaven": 3961,
      "Ġcaused": 3962,
      "Ġfa": 3963,
      "miss": 3964,
      "Ġweapons": 3965,
      "Un": 3966,
      "ĠDef": 3967,
      "Ġcharges": 3968,
      "ĠAnt": 3969,
      "see": 3970,
      "Ġarm": 3971,
      "uing": 3972,
      "100": 3973,
      "ĠCouncil": 3974,
      "Ġ2007": 3975,
      "Ġemb": 3976,
      "ĠRob": 3977,
      "Ġintegr": 3978,
      "Ġorganiz": 3979,
      "ona": 3980,
      "ĠUnion": 3981,
      "ĠEU": 3982,
      "Ġrise": 3983,
      "Pro": 3984,
      "ĠFranc": 3985,
      "Sc": 3986,
      "ĠLa": 3987,
      "Ġplaces": 3988,
      "Ġreflect": 3989,
      "âĢĿ,": 3990,
      "Ġcriminal": 3991,
      "Ġkept": 3992,
      "Ġconcerns": 3993,
      "ĠMost": 3994,
      "term": 3995,
      "Ġjump": 3996,
      "Ġlaun": 3997,
      "Ġemployees": 3998,
      "Ġpun": 3999,
      "Ġpropos": 4000,
      "Ġang": 4001,
      "Ġfeet": 4002,
      "Ġmer": 4003,
      "Ġshut": 4004,
      "Ġbasic": 4005,
      "Ġfine": 4006,
      "Ġminor": 4007,
      "rian": 4008,
      "Ġfemale": 4009,
      "ya": 4010,
      "ocks": 4011,
      "Ġrare": 4012,
      "Ġvirt": 4013,
      "Here": 4014,
      "ĠSmith": 4015,
      "500": 4016,
      "Ġpros": 4017,
      "Ġcry": 4018,
      "Ġresearchers": 4019,
      "ĠBrown": 4020,
      "Ġnormal": 4021,
      "olic": 4022,
      "Ġliter": 4023,
      "Ġwait": 4024,
      "Ġstudies": 4025,
      "Ġcreating": 4026,
      "ĠBay": 4027,
      "iverse": 4028,
      "iders": 4029,
      "Con": 4030,
      "oles": 4031,
      "Ġeth": 4032,
      "Ġtrou": 4033,
      "Ġabsolute": 4034,
      "Ġimpl": 4035,
      "Ġsources": 4036,
      "ags": 4037,
      "Ġhappens": 4038,
      "mission": 4039,
      "Ġadding": 4040,
      "ĠScott": 4041,
      "Ġstyle": 4042,
      "dom": 4043,
      "Ġsupposed": 4044,
      "ounds": 4045,
      "Ġacqu": 4046,
      "ING": 4047,
      "Ġended": 4048,
      "Ġnames": 4049,
      "Ġseeing": 4050,
      "\":": 4051,
      "Ġactual": 4052,
      "Ġrank": 4053,
      "Ġcommer": 4054,
      "Not": 4055,
      "ãĤ": 4056,
      "IA": 4057,
      "Ġoffered": 4058,
      "Ġclaimed": 4059,
      "Ġposted": 4060,
      "rol": 4061,
      "ĠRec": 4062,
      "Ġpolicies": 4063,
      "ĠChristian": 4064,
      "secut": 4065,
      "Ġvoice": 4066,
      "Ġcalling": 4067,
      "Ġstreet": 4068,
      "Ġbehavior": 4069,
      "ĠFlorida": 4070,
      "ĠPhil": 4071,
      "ean": 4072,
      "Ġinstall": 4073,
      "roid": 4074,
      "Ġpush": 4075,
      "ĠLou": 4076,
      "GB": 4077,
      "Ġtraditional": 4078,
      "Ġauthorities": 4079,
      "32": 4080,
      "ram": 4081,
      "acing": 4082,
      "ĠFrom": 4083,
      "Ġslight": 4084,
      "mittee": 4085,
      "Ġleaving": 4086,
      "ĠAP": 4087,
      "Ġqual": 4088,
      "Ġfunding": 4089,
      "Ġraised": 4090,
      "Ex": 4091,
      "Ġgold": 4092,
      "uana": 4093,
      "earch": 4094,
      "Ġweekend": 4095,
      "Ġdetermin": 4096,
      "ĠWell": 4097,
      "ĠFrancis": 4098,
      "Ġborder": 4099,
      "inger": 4100,
      "Ġstrategy": 4101,
      "Ġbirth": 4102,
      "Ġwilling": 4103,
      "Ġplant": 4104,
      "ica": 4105,
      "Ġbeg": 4106,
      "Ġadult": 4107,
      "Ġweight": 4108,
      "Ġlik": 4109,
      "iled": 4110,
      "aby": 4111,
      "ĠFrance": 4112,
      "Ġlearned": 4113,
      "Ġchoose": 4114,
      "EL": 4115,
      ".âĢĻ": 4116,
      "Ġfat": 4117,
      "Ġgreen": 4118,
      "Ġvalues": 4119,
      "Ġgrand": 4120,
      "Ġminister": 4121,
      "ĠReg": 4122,
      "Ġrestr": 4123,
      "igned": 4124,
      "Ġhospital": 4125,
      "37": 4126,
      "ĠSam": 4127,
      "ĠSecret": 4128,
      "ugg": 4129,
      "Ġensure": 4130,
      "itness": 4131,
      "Ġbeat": 4132,
      "ado": 4133,
      "Ġlearning": 4134,
      "ĠMo": 4135,
      ".'": 4136,
      "OU": 4137,
      "ĠAlex": 4138,
      "Ġdire": 4139,
      "ribution": 4140,
      "Ġscen": 4141,
      "Ġtend": 4142,
      "Ġeye": 4143,
      "pri": 4144,
      "Ġbenefit": 4145,
      "Ġmassive": 4146,
      "rial": 4147,
      "55": 4148,
      "soft": 4149,
      "Ġuns": 4150,
      "Ġteac": 4151,
      "Ġir": 4152,
      "Ġfreedom": 4153,
      "bon": 4154,
      "Ġlose": 4155,
      "ĠPeople": 4156,
      "istry": 4157,
      "ijuana": 4158,
      "Ġprovides": 4159,
      "ĠChicago": 4160,
      "Ġimages": 4161,
      "Ġruns": 4162,
      "ĠOffice": 4163,
      "Ġapplication": 4164,
      "Ġparties": 4165,
      "Ġmostly": 4166,
      "IL": 4167,
      "Ġdevices": 4168,
      "ĠBit": 4169,
      "Ġresidents": 4170,
      "alse": 4171,
      "ĠLet": 4172,
      "CC": 4173,
      "ĠHillary": 4174,
      "Ġinfluence": 4175,
      "Ġmechan": 4176,
      "Ġtemper": 4177,
      "ĠWall": 4178,
      "Ġestabl": 4179,
      "Ġwhom": 4180,
      "Ġasking": 4181,
      "Ġpicture": 4182,
      "etic": 4183,
      "ĠAccording": 4184,
      "Ġkick": 4185,
      "Ġopening": 4186,
      "itude": 4187,
      "Ġappl": 4188,
      "Ġmount": 4189,
      "Ġetc": 4190,
      "ront": 4191,
      "ĠHealth": 4192,
      "Ġdistrict": 4193,
      "Ġagreement": 4194,
      "BA": 4195,
      "Ġbelieved": 4196,
      "Ġbrief": 4197,
      "Ġcars": 4198,
      "Ġsection": 4199,
      "However": 4200,
      "Ġarrested": 4201,
      "Ġconfirmed": 4202,
      "Ġenter": 4203,
      "ĠDel": 4204,
      "Ġlawy": 4205,
      "Ġworse": 4206,
      "Ġadop": 4207,
      "ties": 4208,
      "Ġdrink": 4209,
      "ĠOp": 4210,
      "Ġcritical": 4211,
      "Ġhighest": 4212,
      "Ġrecords": 4213,
      "BS": 4214,
      "Ġrevealed": 4215,
      "Ġoperations": 4216,
      "aks": 4217,
      "cher": 4218,
      "cience": 4219,
      "ĠGet": 4220,
      "Ġproduced": 4221,
      "Ġwonder": 4222,
      "liament": 4223,
      "Ġenforce": 4224,
      "Ġwhatever": 4225,
      "uild": 4226,
      "Ġwat": 4227,
      "Ġwild": 4228,
      "Ġnegoti": 4229,
      "Ġshowing": 4230,
      "Ġbrand": 4231,
      "point": 4232,
      "Ġdollars": 4233,
      "Ġjudge": 4234,
      "Ġadvantage": 4235,
      "ãĢ": 4236,
      "Ġadvoc": 4237,
      "Ġbecomes": 4238,
      "Ġmission": 4239,
      "âĢ¢": 4240,
      "ĠOther": 4241,
      "Ġproduce": 4242,
      "90": 4243,
      "Ġassault": 4244,
      "Ġmiles": 4245,
      "udd": 4246,
      "rig": 4247,
      "Ġgenerally": 4248,
      "Ġoffers": 4249,
      "cell": 4250,
      "ĠLaw": 4251,
      "Ġinterested": 4252,
      "Ġreplace": 4253,
      "win": 4254,
      "=\"": 4255,
      "Ġvac": 4256,
      "ĠWindows": 4257,
      "ented": 4258,
      "ĠSun": 4259,
      "orial": 4260,
      "ĠMat": 4261,
      "Ġstrik": 4262,
      "Ġlimit": 4263,
      "ĠStud": 4264,
      "uries": 4265,
      "ĠCup": 4266,
      "Ġachieve": 4267,
      "ĠBush": 4268,
      "ae": 4269,
      "vest": 4270,
      "ĠTer": 4271,
      "Ġcore": 4272,
      "ĠOh": 4273,
      "ĠMal": 4274,
      "ĠPort": 4275,
      "Ġpattern": 4276,
      "Ġsolution": 4277,
      "Ġbasis": 4278,
      "ĠMil": 4279,
      "Ġmap": 4280,
      "Ġopposition": 4281,
      "icial": 4282,
      "Ġmemory": 4283,
      "Ġstation": 4284,
      "Ġtick": 4285,
      "azon": 4286,
      "PS": 4287,
      "Ġfeeling": 4288,
      "ĠWhy": 4289,
      "Ġindependent": 4290,
      "Ġnine": 4291,
      "ĠCommittee": 4292,
      "gen": 4293,
      "Ġsleep": 4294,
      "Ġdebt": 4295,
      "Ġeffective": 4296,
      "36": 4297,
      "ĠLiber": 4298,
      "Ġtypes": 4299,
      "Ġmale": 4300,
      "Ġdaily": 4301,
      "34": 4302,
      "ĠJustice": 4303,
      "ocr": 4304,
      "ĠPress": 4305,
      "Ġeasier": 4306,
      "icians": 4307,
      "witch": 4308,
      "ĠTrans": 4309,
      "outhern": 4310,
      "ãĥ": 4311,
      "Ġtrial": 4312,
      "illing": 4313,
      "Ġarg": 4314,
      "Ġdestroy": 4315,
      "Ġonto": 4316,
      "ĠÐ": 4317,
      "Ġoccas": 4318,
      "upp": 4319,
      "Ġcondition": 4320,
      "Ġprotest": 4321,
      "Ġdigital": 4322,
      "Ġlabor": 4323,
      "Ġcamera": 4324,
      "oom": 4325,
      "ords": 4326,
      "Ġannounce": 4327,
      "Ġjoin": 4328,
      "Ġfloor": 4329,
      "icrosoft": 4330,
      "eline": 4331,
      "Ġpartners": 4332,
      "Ġshared": 4333,
      "38": 4334,
      "aste": 4335,
      "icy": 4336,
      "Ġopened": 4337,
      "ipe": 4338,
      "Ġmur": 4339,
      "aked": 4340,
      "Ġload": 4341,
      "ĠArt": 4342,
      "estic": 4343,
      "Ġsurround": 4344,
      "ription": 4345,
      "Ġresponsible": 4346,
      "Ġrat": 4347,
      "no": 4348,
      "Ġsites": 4349,
      "ĠPalest": 4350,
      "Ġcru": 4351,
      "Get": 4352,
      "These": 4353,
      "Ġopinion": 4354,
      "ĠBecause": 4355,
      "Ġder": 4356,
      "cont": 4357,
      "ĠBig": 4358,
      "azing": 4359,
      "Ġchair": 4360,
      "lands": 4361,
      "Ġtelevision": 4362,
      "ĠÎ": 4363,
      "Ġproposed": 4364,
      "mine": 4365,
      "FC": 4366,
      "Ġhundreds": 4367,
      "Ġamb": 4368,
      "Ġcommunities": 4369,
      "Ġtheory": 4370,
      "za": 4371,
      "ĠMany": 4372,
      "Ġheavy": 4373,
      "ĠMad": 4374,
      "ĠCommission": 4375,
      "Ġvictims": 4376,
      "ĠFound": 4377,
      "Ġagreed": 4378,
      "Ġexplained": 4379,
      "Ġice": 4380,
      "Ġillegal": 4381,
      "anta": 4382,
      "Ġneighbor": 4383,
      "rad": 4384,
      "ĠTre": 4385,
      "acity": 4386,
      "Ġmillions": 4387,
      "Ġserved": 4388,
      "Ġdouble": 4389,
      "Ġextremely": 4390,
      "Ġbottom": 4391,
      "ĠGreat": 4392,
      "ios": 4393,
      "ĠMod": 4394,
      "Ġtrain": 4395,
      "Ġvs": 4396,
      "coming": 4397,
      "rav": 4398,
      "ĠSecurity": 4399,
      "Ġdefe": 4400,
      "iller": 4401,
      "Ġtransfer": 4402,
      "Ġspecies": 4403,
      "Ġmanagement": 4404,
      "Ġinvestment": 4405,
      "Ġcomfort": 4406,
      "Ġunderstanding": 4407,
      "asy": 4408,
      "Ġepisode": 4409,
      "ĠInte": 4410,
      "oly": 4411,
      "known": 4412,
      "Ġinitial": 4413,
      "Ġcards": 4414,
      "Ġbelief": 4415,
      "Ġargument": 4416,
      "Ġprofessional": 4417,
      "ĠOur": 4418,
      "Ġcoverage": 4419,
      "Ġ31": 4420,
      "Ġvill": 4421,
      "ĠLab": 4422,
      "Ġassociated": 4423,
      "orthern": 4424,
      "Ġframe": 4425,
      "ĠMike": 4426,
      "Ġlegislation": 4427,
      "Ġdepartment": 4428,
      "Ġphoto": 4429,
      "Ġdefend": 4430,
      "Ġinstance": 4431,
      "Ġ90": 4432,
      "Ġvehicle": 4433,
      "iation": 4434,
      "works": 4435,
      "Ġborn": 4436,
      "ortunately": 4437,
      "Ġhero": 4438,
      "Ġsolid": 4439,
      "ĠKorea": 4440,
      "Ġbecoming": 4441,
      "ading": 4442,
      "ĠWestern": 4443,
      "Ġreduce": 4444,
      "Ġlocation": 4445,
      "Ġaudience": 4446,
      "ĠNFL": 4447,
      "Ġmarriage": 4448,
      "Ġchem": 4449,
      "ibrary": 4450,
      "Ġnovel": 4451,
      "Ġdefinitely": 4452,
      "bert": 4453,
      "Ġbur": 4454,
      "Ġmachine": 4455,
      "Ġ80": 4456,
      "Ġincred": 4457,
      "Ġ2006": 4458,
      "Ġwinning": 4459,
      "ada": 4460,
      "Ġserve": 4461,
      "istics": 4462,
      "Ġcommand": 4463,
      "ih": 4464,
      "ribe": 4465,
      "ribute": 4466,
      "Ġleadership": 4467,
      "well": 4468,
      "ĠInc": 4469,
      "Mr": 4470,
      "Pl": 4471,
      "Ġputting": 4472,
      "Ġharm": 4473,
      "ĠAtt": 4474,
      "Ġexisting": 4475,
      "Ġnegative": 4476,
      "orrow": 4477,
      "Ġspl": 4478,
      "Ġunlike": 4479,
      "Ġmobile": 4480,
      "Ġnotes": 4481,
      "Ġthus": 4482,
      "ĠAM": 4483,
      "ĠÃ": 4484,
      "ography": 4485,
      "odes": 4486,
      "Ġcoal": 4487,
      "Ġpurpose": 4488,
      "Ġappeal": 4489,
      "ipped": 4490,
      "Ġcompetition": 4491,
      "Ġcontrovers": 4492,
      "Ġactive": 4493,
      "ĠCanadian": 4494,
      "Ġdirection": 4495,
      "Ġsurface": 4496,
      "ĠGame": 4497,
      "Ġtraffic": 4498,
      "Ġdocuments": 4499,
      "Ġchurch": 4500,
      "ĠCommun": 4501,
      "Ġdetect": 4502,
      "Ġelectric": 4503,
      "ĠBank": 4504,
      "akistan": 4505,
      "Ġrefuge": 4506,
      "Ġsett": 4507,
      "Ġfaith": 4508,
      "Ġwatching": 4509,
      "icip": 4510,
      "night": 4511,
      "Ġcateg": 4512,
      "ulf": 4513,
      "ste": 4514,
      "which": 4515,
      "Ġolder": 4516,
      "ĠCarol": 4517,
      "Ġmarijuana": 4518,
      "Ġbackground": 4519,
      "Ġwealth": 4520,
      "Ġfresh": 4521,
      "ĠJohnson": 4522,
      "Ġexplain": 4523,
      "ipp": 4524,
      "Ġreject": 4525,
      "omas": 4526,
      "Ġrestaur": 4527,
      "Ġassum": 4528,
      "39": 4529,
      "Ġsupporters": 4530,
      "ictions": 4531,
      "Ġobtain": 4532,
      "ĠEv": 4533,
      "bing": 4534,
      "atically": 4535,
      "aran": 4536,
      "iful": 4537,
      "house": 4538,
      "ĠFin": 4539,
      "ĠOver": 4540,
      "Ġviews": 4541,
      "Ġaccused": 4542,
      "resp": 4543,
      "Ġhearing": 4544,
      "ĠPri": 4545,
      "ario": 4546,
      "ĠChurch": 4547,
      "ĠSince": 4548,
      "ĠInstitute": 4549,
      "Ġseparate": 4550,
      "Ġtrend": 4551,
      "Ġanimals": 4552,
      "ĠMag": 4553,
      "Ġ70": 4554,
      "hem": 4555,
      "vention": 4556,
      "Ġdie": 4557,
      "zen": 4558,
      "Ġran": 4559,
      "Ġrequires": 4560,
      "Ġdoubt": 4561,
      "olf": 4562,
      "Ġreturned": 4563,
      "Ġbed": 4564,
      "ĠYour": 4565,
      "Ġentirely": 4566,
      "Ġ35": 4567,
      "enses": 4568,
      "Ġinternet": 4569,
      "ĠBritain": 4570,
      "Ġscientists": 4571,
      "Ġworst": 4572,
      "Ġvictory": 4573,
      "Ġsuggested": 4574,
      "ĠYes": 4575,
      "Ġexperiment": 4576,
      "ST": 4577,
      "Ġcash": 4578,
      "Ġmicro": 4579,
      "ĠLeg": 4580,
      "Ġaspect": 4581,
      "Ġresist": 4582,
      "Ġbusinesses": 4583,
      "Ġnorth": 4584,
      "Ġnotice": 4585,
      "ait": 4586,
      "ference": 4587,
      "Ġpurs": 4588,
      "level": 4589,
      "Ġgay": 4590,
      "phone": 4591,
      "ĠVir": 4592,
      "PA": 4593,
      "Ġconservative": 4594,
      "Ġallowing": 4595,
      "Ġitems": 4596,
      "ĠTy": 4597,
      "going": 4598,
      "iliar": 4599,
      "semb": 4600,
      "Ġdecisions": 4601,
      "ĠUk": 4602,
      "Ġissued": 4603,
      "Ġradio": 4604,
      "Ġlaunched": 4605,
      "Ġdangerous": 4606,
      "Ġstated": 4607,
      "Ġteach": 4608,
      "Ġfuel": 4609,
      "ĠSl": 4610,
      "andom": 4611,
      "Ġsmaller": 4612,
      "inct": 4613,
      "actions": 4614,
      "Ġstrength": 4615,
      "ears": 4616,
      "ĠLike": 4617,
      "Ġplease": 4618,
      "ctors": 4619,
      "ĠSanders": 4620,
      "Ġcommercial": 4621,
      "Ġmax": 4622,
      "Ġlength": 4623,
      "Image": 4624,
      "Ġdecade": 4625,
      "umn": 4626,
      "Ġship": 4627,
      "ĠLos": 4628,
      "ĠAssociation": 4629,
      "ghan": 4630,
      "rd": 4631,
      "Ġscale": 4632,
      "Ġsupported": 4633,
      "Ġwel": 4634,
      "Ġrepeated": 4635,
      "ossible": 4636,
      "Ġconcerned": 4637,
      "Ġexerc": 4638,
      "OL": 4639,
      "48": 4640,
      "Ġtask": 4641,
      "ga": 4642,
      "Ġspoke": 4643,
      "Ġtim": 4644,
      "anted": 4645,
      "Ġstock": 4646,
      "ĠDirect": 4647,
      "but": 4648,
      "Ġge": 4649,
      "Ġcommittee": 4650,
      "Ġfalse": 4651,
      "inter": 4652,
      "Ġtools": 4653,
      "Americ": 4654,
      "Ġstructure": 4655,
      "tery": 4656,
      "rey": 4657,
      "Ġclosed": 4658,
      "Ġunit": 4659,
      "Ġded": 4660,
      "Ġafford": 4661,
      "gency": 4662,
      "anging": 4663,
      "More": 4664,
      "47": 4665,
      "ĠFrank": 4666,
      "ĠHall": 4667,
      "ulated": 4668,
      "ronic": 4669,
      "Ġannual": 4670,
      "izes": 4671,
      "ampionship": 4672,
      "Ġnor": 4673,
      "Ġbanks": 4674,
      "bre": 4675,
      "Ġtransport": 4676,
      "Ġraise": 4677,
      "Ġbomb": 4678,
      "Ġfinding": 4679,
      "****": 4680,
      "Ġintroduced": 4681,
      "lig": 4682,
      "Ġconcern": 4683,
      "Ġiniti": 4684,
      "Ġcompar": 4685,
      "osure": 4686,
      "Ġmurder": 4687,
      "Ġdrugs": 4688,
      "ĠJones": 4689,
      "Ġconsequ": 4690,
      "kins": 4691,
      "Ġcircum": 4692,
      "Ġplaced": 4693,
      "ĠFox": 4694,
      "ĠMer": 4695,
      "ĠIslamic": 4696,
      "Ġabuse": 4697,
      "Ġcandidates": 4698,
      "Ġtruly": 4699,
      "Ġcontain": 4700,
      "Ġlargely": 4701,
      "ĠAtl": 4702,
      "Ġcaught": 4703,
      "Ġdaughter": 4704,
      "oyal": 4705,
      "ady": 4706,
      "Ġcancer": 4707,
      "andon": 4708,
      "Ġsun": 4709,
      "Ġestablish": 4710,
      "Ġtaxes": 4711,
      "ĠSil": 4712,
      "Ġactivities": 4713,
      "ici": 4714,
      "Ġbelieves": 4715,
      "ĠQue": 4716,
      "lor": 4717,
      "Ġtesting": 4718,
      "ours": 4719,
      "Ġhus": 4720,
      "ĠAc": 4721,
      "Ġmentioned": 4722,
      "ĠAre": 4723,
      "Ġrough": 4724,
      "DA": 4725,
      "Ġdiscovered": 4726,
      "Ġdeliver": 4727,
      "Ġtelling": 4728,
      "Ġsurvey": 4729,
      "iling": 4730,
      "ĠRobert": 4731,
      "EM": 4732,
      "Ġplays": 4733,
      "Ġguess": 4734,
      "Ġinjury": 4735,
      "Ġwaiting": 4736,
      "Ġdisease": 4737,
      "ava": 4738,
      "ĠPakistan": 4739,
      "Ġspokesman": 4740,
      "Ġhousing": 4741,
      "Ġaccur": 4742,
      "Ġholding": 4743,
      "Bl": 4744,
      "annel": 4745,
      "overy": 4746,
      "ĠSup": 4747,
      "mm": 4748,
      "nel": 4749,
      "HAHA": 4750,
      "Ġfiles": 4751,
      "Ġsuit": 4752,
      "cknow": 4753,
      "Ġcatch": 4754,
      "Ġdepend": 4755,
      "ĠCEO": 4756,
      "Ġstrateg": 4757,
      "Ġcontext": 4758,
      "Ġcharged": 4759,
      "!âĢĿ": 4760,
      "Ġdriving": 4761,
      "ource": 4762,
      "pective": 4763,
      "Ġhighlight": 4764,
      "49": 4765,
      "Ġphil": 4766,
      "ĠAfrica": 4767,
      "ĠFBI": 4768,
      "Ġjustice": 4769,
      "Ġplanning": 4770,
      "ĠMet": 4771,
      "ius": 4772,
      "ĠPC": 4773,
      "rick": 4774,
      "ĠUN": 4775,
      "ĠAngeles": 4776,
      "Ġjoined": 4777,
      "Ġtells": 4778,
      "ros": 4779,
      "Ġhomes": 4780,
      "ĠInstead": 4781,
      "Ġhasn": 4782,
      "how": 4783,
      "Ġuseful": 4784,
      "Ġ2005": 4785,
      "Ġstick": 4786,
      "Ġgeneration": 4787,
      "equ": 4788,
      "ĠRom": 4789,
      "itz": 4790,
      "Ġsetting": 4791,
      "ĠChris": 4792,
      "Ġinsurance": 4793,
      "Ġdriver": 4794,
      "ruit": 4795,
      "la": 4796,
      "Ġfarm": 4797,
      "Ġsports": 4798,
      "Ġconstruction": 4799,
      "vant": 4800,
      "CH": 4801,
      "Ġsouth": 4802,
      "ĠAfrican": 4803,
      "ĠLouis": 4804,
      "icon": 4805,
      "rency": 4806,
      "Ġappropri": 4807,
      "Ġcollection": 4808,
      "Ġsequ": 4809,
      "Ġgirls": 4810,
      "onto": 4811,
      "Ð¾": 4812,
      "ancy": 4813,
      "ĠUkrain": 4814,
      "Ġmodels": 4815,
      "ĠMP": 4816,
      "ĠVer": 4817,
      "Go": 4818,
      "itect": 4819,
      "Ġproviding": 4820,
      "Ġelements": 4821,
      "stitution": 4822,
      "ĠGroup": 4823,
      "erences": 4824,
      "Ġassess": 4825,
      "Ġarrived": 4826,
      "Ġstrike": 4827,
      "Ġblue": 4828,
      "Ġrecommend": 4829,
      "Ġattend": 4830,
      "NN": 4831,
      "Ġhack": 4832,
      "ĠWil": 4833,
      "ception": 4834,
      "Ġconversation": 4835,
      "Ġsan": 4836,
      "Ġfeels": 4837,
      "Ġfocused": 4838,
      "Ġpresence": 4839,
      "Ġkeeping": 4840,
      "Our": 4841,
      "Ġunits": 4842,
      "Ġoccup": 4843,
      "Ġmissing": 4844,
      "ĠIsraeli": 4845,
      "Ġcook": 4846,
      "Ġnewsp": 4847,
      "rim": 4848,
      "olly": 4849,
      "ups": 4850,
      "Ġgraph": 4851,
      "Ġcorner": 4852,
      "Ġkid": 4853,
      "what": 4854,
      "Ġfunds": 4855,
      "ĠMont": 4856,
      "Ġwitness": 4857,
      "Ġrelatively": 4858,
      "ocracy": 4859,
      "Photo": 4860,
      "ĠMicrosoft": 4861,
      "ancing": 4862,
      "Ġotherwise": 4863,
      "Ġconflict": 4864,
      "do": 4865,
      "ĠAfghan": 4866,
      "Ġestablished": 4867,
      "Ġfinished": 4868,
      "Ġinterests": 4869,
      "real": 4870,
      "Ġfant": 4871,
      "ĠSal": 4872,
      "Ġmeasures": 4873,
      "den": 4874,
      "Ġimmigration": 4875,
      "ĠJeff": 4876,
      "igan": 4877,
      "Ġremoved": 4878,
      "Ġfourth": 4879,
      "wing": 4880,
      "Ġoffensive": 4881,
      "].": 4882,
      "Ġacknow": 4883,
      "isf": 4884,
      "ĠGovernment": 4885,
      "ĠKen": 4886,
      "Ġtherefore": 4887,
      "Ġstopped": 4888,
      "Ġnone": 4889,
      "Ġskills": 4890,
      "Ġexchange": 4891,
      "Ġbigger": 4892,
      "Ġeat": 4893,
      "ĠJapanese": 4894,
      "icide": 4895,
      "ĠAndroid": 4896,
      "Ġsubsc": 4897,
      "place": 4898,
      "hens": 4899,
      "Ġphotos": 4900,
      "ka": 4901,
      "Ġgender": 4902,
      "Ġconnection": 4903,
      "Ġfigures": 4904,
      "ĠSecretary": 4905,
      "pm": 4906,
      "apped": 4907,
      "Ġtough": 4908,
      "Ġenforcement": 4909,
      "ĠFore": 4910,
      "ication": 4911,
      "ications": 4912,
      "ĠMexico": 4913,
      "75": 4914,
      "ucky": 4915,
      "Ġdiscussion": 4916,
      "Ġupdate": 4917,
      "ulate": 4918,
      "ĠAmazon": 4919,
      "cks": 4920,
      "Ġprefer": 4921,
      "azine": 4922,
      "ola": 4923,
      "ĠRyan": 4924,
      "Ġdevelopers": 4925,
      "Ġmanaged": 4926,
      "IM": 4927,
      "RA": 4928,
      "TC": 4929,
      "ĠGOP": 4930,
      "Ġspirit": 4931,
      "isation": 4932,
      "ĠJim": 4933,
      "Ġoperation": 4934,
      "ĠPalestin": 4935,
      "ĠJud": 4936,
      "!!": 4937,
      "Ġfiled": 4938,
      "anda": 4939,
      "outs": 4940,
      "ĠRock": 4941,
      "Ġobvious": 4942,
      "ocal": 4943,
      "imal": 4944,
      "ula": 4945,
      "season": 4946,
      "gar": 4947,
      "oted": 4948,
      "Ġdownload": 4949,
      "ĠTim": 4950,
      "Ġconclud": 4951,
      "ĠSupreme": 4952,
      "Ġcommitted": 4953,
      "Ġtrip": 4954,
      "Ġidentified": 4955,
      "Ġidentity": 4956,
      "Des": 4957,
      "Ġslightly": 4958,
      "Ġveter": 4959,
      "ey": 4960,
      "Ġclick": 4961,
      "hedul": 4962,
      "Ġowner": 4963,
      "ĠFrancisco": 4964,
      "Ġrout": 4965,
      "Ġweak": 4966,
      "spe": 4967,
      "eah": 4968,
      "Ġarmy": 4969,
      "ĠTeam": 4970,
      "verse": 4971,
      "oms": 4972,
      "ano": 4973,
      "Ġbul": 4974,
      "odies": 4975,
      "Ġfailure": 4976,
      "Ġmulti": 4977,
      "Ġhair": 4978,
      "Ġstarts": 4979,
      "Ġmental": 4980,
      "Ġsuggests": 4981,
      "Ġfle": 4982,
      "ĠJoe": 4983,
      "Ġsupply": 4984,
      "Ġplanet": 4985,
      "Ġvir": 4986,
      "Ġpartner": 4987,
      "SP": 4988,
      "iser": 4989,
      "Ġdefensive": 4990,
      "ĠAlso": 4991,
      "prof": 4992,
      "with": 4993,
      "ĠKh": 4994,
      "antic": 4995,
      "Ġmarkets": 4996,
      "ĠInter": 4997,
      "gers": 4998,
      "ĠProf": 4999,
      "hi": 5000,
      "Ġprotection": 5001,
      "Ġorganizations": 5002,
      "46": 5003,
      "ĠPre": 5004,
      "ĠGree": 5005,
      "ores": 5006,
      "ĠPet": 5007,
      "Ġplanned": 5008,
      "Ġwish": 5009,
      "Ġsteps": 5010,
      "Ġspect": 5011,
      "ĠVirgin": 5012,
      "Ġguard": 5013,
      "rees": 5014,
      "illa": 5015,
      "uate": 5016,
      "owl": 5017,
      "Ġthanks": 5018,
      "Ġ32": 5019,
      "Ġmere": 5020,
      "ĠMiss": 5021,
      "onym": 5022,
      "Ġtransl": 5023,
      "Ġsides": 5024,
      "Ġpit": 5025,
      "ĠResearch": 5026,
      "Ġ2000": 5027,
      "ĠArmy": 5028,
      "ĠNor": 5029,
      "arsh": 5030,
      "Ġaggress": 5031,
      "Ġamazing": 5032,
      "Ġgain": 5033,
      "ĠDan": 5034,
      "77": 5035,
      "Ġkilling": 5036,
      "Ġserver": 5037,
      "dden": 5038,
      "Ġearth": 5039,
      "Ġimpossible": 5040,
      "Ġhelping": 5041,
      "Ġspeaking": 5042,
      "Ġvariety": 5043,
      "âĢĺ": 5044,
      "Ġneighborhood": 5045,
      "Ġcommission": 5046,
      "Ġapply": 5047,
      "run": 5048,
      "uct": 5049,
      "ayer": 5050,
      "mail": 5051,
      "Ġtransform": 5052,
      "kin": 5053,
      "ĠSub": 5054,
      "ĠAN": 5055,
      "ĠJose": 5056,
      "ĠOut": 5057,
      "ĠWeb": 5058,
      "aine": 5059,
      "ĠRichard": 5060,
      "ĠIr": 5061,
      "31": 5062,
      "Ġenvironmental": 5063,
      "Ġequip": 5064,
      "ĠDec": 5065,
      "ĠFire": 5066,
      "Trump": 5067,
      "Ġcold": 5068,
      "Last": 5069,
      "ĠJewish": 5070,
      "Ġcrew": 5071,
      "Ġoperating": 5072,
      "ĠTwo": 5073,
      "Ġscript": 5074,
      "Ġsust": 5075,
      "Ġinnov": 5076,
      "makers": 5077,
      "Ġtack": 5078,
      "ĠDistrict": 5079,
      "Ġapart": 5080,
      "Read": 5081,
      "Ġsounds": 5082,
      "gypt": 5083,
      "ĠDen": 5084,
      "coh": 5085,
      "Ġhate": 5086,
      "Ġstandards": 5087,
      "Ġremind": 5088,
      "stream": 5089,
      "Ġneighb": 5090,
      "ĠAri": 5091,
      "ils": 5092,
      "Ġfamiliar": 5093,
      "eless": 5094,
      "ĠThomas": 5095,
      "Ġroll": 5096,
      "65": 5097,
      "Ã¡": 5098,
      "Ġcloser": 5099,
      "Ġsudden": 5100,
      "Ġunivers": 5101,
      "Ġdecide": 5102,
      "Ġvotes": 5103,
      "ĠTheir": 5104,
      "ĠCentral": 5105,
      "ĠTHE": 5106,
      "itt": 5107,
      "Ġhappening": 5108,
      "Ġprinc": 5109,
      "aven": 5110,
      "Ġterrit": 5111,
      "Ġath": 5112,
      "Ġseconds": 5113,
      "adium": 5114,
      "Ġcarried": 5115,
      "()": 5116,
      "iot": 5117,
      "Ġabsolutely": 5118,
      "ighter": 5119,
      "Ġexpensive": 5120,
      "Ġhusband": 5121,
      "NA": 5122,
      "ĠAlthough": 5123,
      "ynam": 5124,
      "OW": 5125,
      "Ġvul": 5126,
      "ĠMary": 5127,
      "Ġcapacity": 5128,
      "Why": 5129,
      "obby": 5130,
      "Ġapparently": 5131,
      "Ġworry": 5132,
      "adem": 5133,
      "Ġimagine": 5134,
      "Ġchanging": 5135,
      "Ġstanding": 5136,
      "ader": 5137,
      "Ġappre": 5138,
      "Ġsettle": 5139,
      "Ġpossibly": 5140,
      "Ġphilos": 5141,
      "Ġaward": 5142,
      "Sp": 5143,
      "Ġ2018": 5144,
      "Ġdomestic": 5145,
      "ĠMartin": 5146,
      "net": 5147,
      "Ġschedul": 5148,
      "Ġ45": 5149,
      "Ġseeking": 5150,
      "Ġtwice": 5151,
      "erous": 5152,
      "ĠRo": 5153,
      "range": 5154,
      "related": 5155,
      "ĠCarolina": 5156,
      "rastructure": 5157,
      "ĠSol": 5158,
      "Ġdegree": 5159,
      "Ġgar": 5160,
      "uters": 5161,
      "cons": 5162,
      "Ġ00": 5163,
      "ĠLast": 5164,
      "lo": 5165,
      "Ġyards": 5166,
      "Ġmigr": 5167,
      "Ġlosing": 5168,
      "aded": 5169,
      "ologies": 5170,
      "awn": 5171,
      "vis": 5172,
      "look": 5173,
      "Ġincreasingly": 5174,
      "Ġalternative": 5175,
      "Ġrevolution": 5176,
      "Ġregarding": 5177,
      "agues": 5178,
      "gn": 5179,
      "ĠPrime": 5180,
      "Ġwindow": 5181,
      "Ġ2004": 5182,
      "Ġcells": 5183,
      "Ġturns": 5184,
      "ĠPlan": 5185,
      "Ġpair": 5186,
      "ĠUs": 5187,
      "ION": 5188,
      "Ġvast": 5189,
      "ashed": 5190,
      "Ġearn": 5191,
      "Ġstruct": 5192,
      "ĠBur": 5193,
      "arp": 5194,
      "ĠMur": 5195,
      "Ġheat": 5196,
      "Ġbalance": 5197,
      "IP": 5198,
      "Ġbeer": 5199,
      "ĠJon": 5200,
      "Ġcorporate": 5201,
      "ĠService": 5202,
      "Ġhumans": 5203,
      "ĠTime": 5204,
      "Ġflow": 5205,
      "Ġpaying": 5206,
      "ĠGood": 5207,
      "Ġdeveloping": 5208,
      "From": 5209,
      "aren": 5210,
      "Ġerror": 5211,
      "ĠPeter": 5212,
      "acks": 5213,
      "ĠFoundation": 5214,
      "Ġtalks": 5215,
      "Of": 5216,
      "oty": 5217,
      "ĠSur": 5218,
      "ĠBitcoin": 5219,
      "Ġsch": 5220,
      "Ġlived": 5221,
      "ĠSyrian": 5222,
      "Ġbroken": 5223,
      "ĠRub": 5224,
      "ĠLu": 5225,
      "Ġpet": 5226,
      "Ġtweet": 5227,
      "road": 5228,
      "Ġrou": 5229,
      "Ġunion": 5230,
      "Up": 5231,
      "ĠToronto": 5232,
      "iter": 5233,
      "Ġsport": 5234,
      "Ġhelps": 5235,
      "Ġdat": 5236,
      "Ġdeploy": 5237,
      "Ġrich": 5238,
      "alls": 5239,
      "Ġprofessor": 5240,
      "Ġsoldiers": 5241,
      "Ġvision": 5242,
      "Ġque": 5243,
      "ĠBern": 5244,
      "ĠFederal": 5245,
      "Ġapplications": 5246,
      "Ġcuts": 5247,
      "olit": 5248,
      "Ġconvention": 5249,
      "Ġdropped": 5250,
      "Ġadjust": 5251,
      "Ġaccounts": 5252,
      "!\"": 5253,
      "Ġpossibility": 5254,
      "Ġultimately": 5255,
      "Even": 5256,
      "Ġflight": 5257,
      "Ġpil": 5258,
      "Ġresponsibility": 5259,
      "Ġagencies": 5260,
      "Ġunless": 5261,
      "Ġsecure": 5262,
      "%)": 5263,
      "ĠJo": 5264,
      "apers": 5265,
      "isted": 5266,
      "Ġhonest": 5267,
      "Ġfellow": 5268,
      "Ġapps": 5269,
      "Ġshall": 5270,
      "Ġfol": 5271,
      "DP": 5272,
      "Ġbeautiful": 5273,
      "uster": 5274,
      "Do": 5275,
      "Ġwriter": 5276,
      "Ġequipment": 5277,
      "ĠThose": 5278,
      "iams": 5279,
      "Ġbaby": 5280,
      "95": 5281,
      "top": 5282,
      "Ġappoint": 5283,
      "Ġtrail": 5284,
      "Ġstreets": 5285,
      "ĠChief": 5286,
      "64": 5287,
      "oston": 5288,
      "Ġfif": 5289,
      "Ġproposal": 5290,
      "hand": 5291,
      "ĠUnder": 5292,
      "Ġbrow": 5293,
      "Ġhealthy": 5294,
      "ĠCollege": 5295,
      "Ġsitting": 5296,
      "ĠGal": 5297,
      "atures": 5298,
      "Ġpotentially": 5299,
      "Ġchallenges": 5300,
      "ĠMiddle": 5301,
      "Ġvoted": 5302,
      "under": 5303,
      "Ġexperts": 5304,
      "ĠImages": 5305,
      "Just": 5306,
      "Ġlocated": 5307,
      "Ġstars": 5308,
      "Ġscientific": 5309,
      "van": 5310,
      "useum": 5311,
      "roud": 5312,
      "ĠGuard": 5313,
      "Ne": 5314,
      "Ġarms": 5315,
      "ĠAny": 5316,
      "Let": 5317,
      "Ġprove": 5318,
      "state": 5319,
      "oving": 5320,
      "Ġmode": 5321,
      "ht": 5322,
      "Phone": 5323,
      "Ġseasons": 5324,
      "Ġtests": 5325,
      "Ġfundament": 5326,
      "Ġestimated": 5327,
      "ansion": 5328,
      "Ġreligion": 5329,
      "gl": 5330,
      "rible": 5331,
      "person": 5332,
      "Ġintended": 5333,
      "Ġmut": 5334,
      "Ġmaster": 5335,
      "Ġpresented": 5336,
      "Ġcovered": 5337,
      "Ġfactors": 5338,
      "orage": 5339,
      "arks": 5340,
      "Ġupgr": 5341,
      "cious": 5342,
      "ĠUSA": 5343,
      "Ġtight": 5344,
      "Ġinsp": 5345,
      "anche": 5346,
      "ias": 5347,
      "Ġclin": 5348,
      "Ġcolle": 5349,
      "Ġcopyright": 5350,
      "Every": 5351,
      "ĠEgypt": 5352,
      "ressive": 5353,
      "Ġequal": 5354,
      "Ġfired": 5355,
      "mas": 5356,
      "ĠPublic": 5357,
      "enced": 5358,
      "Ġinstit": 5359,
      "Ġconsult": 5360,
      "ĠLat": 5361,
      "ordin": 5362,
      "Ġtourn": 5363,
      "mes": 5364,
      "inte": 5365,
      "clusion": 5366,
      "Ġsea": 5367,
      "ĠJes": 5368,
      "ĠMass": 5369,
      "col": 5370,
      "osen": 5371,
      "Ġguaran": 5372,
      "Ġdetermine": 5373,
      "Ġstret": 5374,
      "porary": 5375,
      "Ġjail": 5376,
      "PR": 5377,
      "ogue": 5378,
      "Ġinternal": 5379,
      "idden": 5380,
      "####": 5381,
      "Ġvulner": 5382,
      "Ġsector": 5383,
      "Ġrent": 5384,
      "och": 5385,
      "Ġretail": 5386,
      "Ġsolar": 5387,
      "Ġrid": 5388,
      "ocol": 5389,
      "terday": 5390,
      "Ġodd": 5391,
      "ortion": 5392,
      "ĠAustralian": 5393,
      "Ġtur": 5394,
      "Ġgovernments": 5395,
      "Ġselling": 5396,
      "ĠVe": 5397,
      "Ġton": 5398,
      ",'": 5399,
      "ĠLee": 5400,
      "ĠSpr": 5401,
      "Ġforms": 5402,
      "Ġinfrastructure": 5403,
      "Ġpurchase": 5404,
      "ĠForce": 5405,
      "noon": 5406,
      "lets": 5407,
      "Ġfamous": 5408,
      "Ġoccurred": 5409,
      "Ġvoting": 5410,
      "Ġdomin": 5411,
      "Ġexclus": 5412,
      "ĠIsland": 5413,
      "Ġskin": 5414,
      "42": 5415,
      "Ġsurprise": 5416,
      "ĠST": 5417,
      "Ġpercentage": 5418,
      "IV": 5419,
      "Ġboost": 5420,
      "ĠFe": 5421,
      "Ġpieces": 5422,
      "Ġfaster": 5423,
      "Ġprime": 5424,
      "vey": 5425,
      "Ġelections": 5426,
      "ĠMos": 5427,
      "ĠPut": 5428,
      "ĠSteve": 5429,
      "Ġexpert": 5430,
      "Ġruling": 5431,
      "ipping": 5432,
      "ĠFree": 5433,
      "Ġuniversity": 5434,
      "Ġdin": 5435,
      "Ġsignificantly": 5436,
      "Ġrevenue": 5437,
      "Ġaffected": 5438,
      "Ġclot": 5439,
      "olved": 5440,
      "Ġclim": 5441,
      "Ġminimum": 5442,
      "ĠRod": 5443,
      "LE": 5444,
      "ĠOnce": 5445,
      "rier": 5446,
      "ĠRiver": 5447,
      "Ġprepared": 5448,
      "Ġmarg": 5449,
      "First": 5450,
      "Ġanimal": 5451,
      "inent": 5452,
      "onom": 5453,
      "Ġgrew": 5454,
      "Ġreduced": 5455,
      "Ġfinish": 5456,
      "Ġstress": 5457,
      "ĠJournal": 5458,
      "Ġsymb": 5459,
      "ENT": 5460,
      "Ġteen": 5461,
      "Ġvehicles": 5462,
      "ĠCath": 5463,
      "cel": 5464,
      "Ġoriginally": 5465,
      "PD": 5466,
      "ashion": 5467,
      "Ġspecifically": 5468,
      "ruption": 5469,
      "ĠWho": 5470,
      "ĠSing": 5471,
      "ĠCamp": 5472,
      "Ġpointed": 5473,
      "ocking": 5474,
      "ucks": 5475,
      "cohol": 5476,
      "Ġauthority": 5477,
      "edia": 5478,
      "ĠParis": 5479,
      "Ġrapid": 5480,
      "II": 5481,
      "Ab": 5482,
      "ĠPlease": 5483,
      "Ġplenty": 5484,
      "Ġpredict": 5485,
      "Ġexpressed": 5486,
      "lymp": 5487,
      "Ġrandom": 5488,
      "Ġhandle": 5489,
      "ĠMedic": 5490,
      "0000": 5491,
      "ureau": 5492,
      "08": 5493,
      "ini": 5494,
      "Ġdifferences": 5495,
      "Ġconsumers": 5496,
      "Ġdram": 5497,
      "Ġcombat": 5498,
      "sen": 5499,
      "Ġremaining": 5500,
      "Ġrefused": 5501,
      "Ġbroke": 5502,
      "ĠSpace": 5503,
      "59": 5504,
      "Ġconducted": 5505,
      "ita": 5506,
      "abilities": 5507,
      "Ġthank": 5508,
      "Ġattorney": 5509,
      "Ġaid": 5510,
      "Ġshape": 5511,
      "met": 5512,
      "phas": 5513,
      "ĠDuring": 5514,
      "HL": 5515,
      "Ġcouncil": 5516,
      "Ġgreatest": 5517,
      "ĠHol": 5518,
      "Ġremove": 5519,
      "Ġherself": 5520,
      "ĠBook": 5521,
      "ĠToday": 5522,
      "ĠAT": 5523,
      "ĠBoth": 5524,
      "Ġagent": 5525,
      "uzz": 5526,
      "Ġminute": 5527,
      "ĠConserv": 5528,
      "Ġscr": 5529,
      "Ġappearance": 5530,
      "Ġpositions": 5531,
      "aling": 5532,
      "ownt": 5533,
      "pted": 5534,
      "Ġweren": 5535,
      "endment": 5536,
      "lyn": 5537,
      "yth": 5538,
      "Ġdetermined": 5539,
      "Ġarchitect": 5540,
      "class": 5541,
      "Ġbought": 5542,
      "rie": 5543,
      "Ġthr": 5544,
      "Ġheav": 5545,
      "Ġconsidering": 5546,
      "Ste": 5547,
      "Ġbound": 5548,
      "ĠCur": 5549,
      "Ġcultural": 5550,
      "Am": 5551,
      "Ġinvolve": 5552,
      "Ġtroops": 5553,
      "ĠIN": 5554,
      "Ġbasically": 5555,
      "stein": 5556,
      "esters": 5557,
      "Ġafternoon": 5558,
      "reens": 5559,
      "Ġdistance": 5560,
      "ĠBoston": 5561,
      "Ġwood": 5562,
      "Ġtact": 5563,
      "Ġpitch": 5564,
      "Ġidentify": 5565,
      "Ġtrig": 5566,
      "Ġelected": 5567,
      "itable": 5568,
      "Ġflat": 5569,
      "Ġfacing": 5570,
      "that": 5571,
      "Ġstorm": 5572,
      "Ġ2003": 5573,
      "Ġobviously": 5574,
      "His": 5575,
      "ĠStep": 5576,
      "Ġdream": 5577,
      "Ġends": 5578,
      "Ġhurt": 5579,
      "Ġweapon": 5580,
      "Ġpoliticians": 5581,
      "ĠVirginia": 5582,
      "Ġyouth": 5583,
      "raud": 5584,
      "Ġproced": 5585,
      "Ġlisten": 5586,
      "Ġappreci": 5587,
      "Ġconfidence": 5588,
      "Ġstruggle": 5589,
      "Ġsigns": 5590,
      "Ġcontrast": 5591,
      "ĠFed": 5592,
      "Ġ1990": 5593,
      "Pe": 5594,
      "UT": 5595,
      "Ġremained": 5596,
      "Ġglass": 5597,
      "Ġinfect": 5598,
      "Ġid": 5599,
      "standing": 5600,
      "yr": 5601,
      "Ġoptim": 5602,
      "ĠWork": 5603,
      "ĠSocial": 5604,
      "ĠPenn": 5605,
      "Ġspring": 5606,
      "Ġdisappoint": 5607,
      "Ġbringing": 5608,
      "Ġreact": 5609,
      "Ġargued": 5610,
      "Ġpages": 5611,
      "ĠNAS": 5612,
      "Ġmethods": 5613,
      "Ġvideos": 5614,
      "ĠHuman": 5615,
      "Ġsurprising": 5616,
      "Ġfaces": 5617,
      "ĠColor": 5618,
      "Ġaccident": 5619,
      "Ġlots": 5620,
      "Ġexcited": 5621,
      "respond": 5622,
      "Ġnar": 5623,
      "ĠMel": 5624,
      "ĠRem": 5625,
      "Ġoffering": 5626,
      "ĠProject": 5627,
      "Ġhyp": 5628,
      "gment": 5629,
      "Ġweather": 5630,
      "ĠOlymp": 5631,
      "Ġplus": 5632,
      "Ġdismiss": 5633,
      "ĠBBC": 5634,
      "apter": 5635,
      "fe": 5636,
      "water": 5637,
      "Ġsupporting": 5638,
      "Since": 5639,
      "rog": 5640,
      "uration": 5641,
      "Ġopportunities": 5642,
      "ĠDaily": 5643,
      "Ġrecorded": 5644,
      "ĠWilliam": 5645,
      "56": 5646,
      "Ġleads": 5647,
      "Qu": 5648,
      "Ġvisual": 5649,
      "care": 5650,
      "Ġbreat": 5651,
      "Ġshift": 5652,
      "Ġprospect": 5653,
      "Ġexperienced": 5654,
      "Ġpowers": 5655,
      "Another": 5656,
      "Ġbelong": 5657,
      "Ġcalcul": 5658,
      "Ġwearing": 5659,
      "isher": 5660,
      "cean": 5661,
      "Ġconfident": 5662,
      "aints": 5663,
      "],": 5664,
      "Ġsale": 5665,
      "Ġfilms": 5666,
      "bur": 5667,
      "ensions": 5668,
      "Ġtalent": 5669,
      "Ġcas": 5670,
      "ĠCharl": 5671,
      "ato": 5672,
      "enger": 5673,
      "abin": 5674,
      "Ġcombined": 5675,
      "Ġswitch": 5676,
      "78": 5677,
      "Ind": 5678,
      "Ġtele": 5679,
      "Ġopposed": 5680,
      "lines": 5681,
      "aniel": 5682,
      "ette": 5683,
      "centr": 5684,
      "ĠOpen": 5685,
      "Ġhopes": 5686,
      "ml": 5687,
      "Ġaircraft": 5688,
      "plom": 5689,
      "Ġcarbon": 5690,
      "ĠWilliams": 5691,
      "ĠNov": 5692,
      "rid": 5693,
      "unction": 5694,
      "Ġreporters": 5695,
      "Ġelement": 5696,
      "Ġmessages": 5697,
      "ĠSqu": 5698,
      "Ġattempts": 5699,
      "Ġhttps": 5700,
      "Ġindeed": 5701,
      "43": 5702,
      "De": 5703,
      "Ġinstruct": 5704,
      "ffee": 5705,
      "Ġpulled": 5706,
      "Ġquarterback": 5707,
      "Ġapproved": 5708,
      "ampion": 5709,
      "Ġchemical": 5710,
      "ĠPhoto": 5711,
      "41": 5712,
      "ĠiPhone": 5713,
      "ĠBraz": 5714,
      "ĠPac": 5715,
      "Ġobserv": 5716,
      "life": 5717,
      "osite": 5718,
      "Ġ500": 5719,
      "ĠCru": 5720,
      "ï¿": 5721,
      "Ġhol": 5722,
      "Ġconstruct": 5723,
      "Ġdiss": 5724,
      "Ġprosecut": 5725,
      "apping": 5726,
      "obe": 5727,
      "05": 5728,
      "Ġwrites": 5729,
      "Ġtypically": 5730,
      "mond": 5731,
      "Ġhun": 5732,
      "Ġfactor": 5733,
      "CL": 5734,
      "ĠRoad": 5735,
      "ĠDirector": 5736,
      "date": 5737,
      "Ġtreated": 5738,
      "Ġtrouble": 5739,
      "eds": 5740,
      "Ġmand": 5741,
      "Ġreaction": 5742,
      "Ġproceed": 5743,
      "ĠSaud": 5744,
      "Ġcompleted": 5745,
      "Ġtun": 5746,
      "ĠRad": 5747,
      "Ġzone": 5748,
      "Ġbodies": 5749,
      "App": 5750,
      "ompl": 5751,
      "ĠSher": 5752,
      "ĠPower": 5753,
      "Ġsevere": 5754,
      "Ġperspective": 5755,
      "zer": 5756,
      "Ġsatisf": 5757,
      "Ġcloud": 5758,
      "ĠDiv": 5759,
      "Ġmort": 5760,
      "hered": 5761,
      "Ġturning": 5762,
      "Ġemergency": 5763,
      "Ġera": 5764,
      "free": 5765,
      "nell": 5766,
      "abled": 5767,
      "Ġpackage": 5768,
      "Ġrenew": 5769,
      "ĠLin": 5770,
      "Ġdenied": 5771,
      "Ġsubs": 5772,
      "IG": 5773,
      "Ðµ": 5774,
      "idel": 5775,
      "Ġexplo": 5776,
      "Ġadvert": 5777,
      "ĠTurkey": 5778,
      "ĠJackson": 5779,
      "Ġdefault": 5780,
      "Ġdiscl": 5781,
      "erry": 5782,
      "ourney": 5783,
      "agers": 5784,
      "anged": 5785,
      "Ġdelay": 5786,
      "essions": 5787,
      "Ġsets": 5788,
      "Ġfly": 5789,
      "Ġclient": 5790,
      "ĠMem": 5791,
      "Ġenemy": 5792,
      "ivered": 5793,
      "alty": 5794,
      "ï¿½": 5795,
      "Ġquant": 5796,
      "Ġshouldn": 5797,
      "Ġcreation": 5798,
      "ĠRel": 5799,
      "orry": 5800,
      "ache": 5801,
      "oking": 5802,
      "ĠStr": 5803,
      "reland": 5804,
      "ributed": 5805,
      "58": 5806,
      "Ġfrustr": 5807,
      "ĠTra": 5808,
      "ĠTO": 5809,
      "Ġemp": 5810,
      "Rep": 5811,
      "ĠHaw": 5812,
      "Ġ36": 5813,
      "Ġresponded": 5814,
      "Ġbull": 5815,
      "Ġstands": 5816,
      "IR": 5817,
      "Ġsession": 5818,
      "ooth": 5819,
      "Ġcollabor": 5820,
      "asp": 5821,
      "Ġentertain": 5822,
      "Ġadvance": 5823,
      "Ġcaption": 5824,
      "aled": 5825,
      "Ġdial": 5826,
      "Ġcrimes": 5827,
      "Ġmatters": 5828,
      "Ġevening": 5829,
      "Ġseriously": 5830,
      "razy": 5831,
      "ala": 5832,
      "Ġgrab": 5833,
      "Ġtechnical": 5834,
      "Ġprivacy": 5835,
      "anish": 5836,
      "Ġgiant": 5837,
      "Ġapprox": 5838,
      "TV": 5839,
      "Ġadmitted": 5840,
      "Ġmotor": 5841,
      "ilit": 5842,
      "ket": 5843,
      "Ġinstitutions": 5844,
      "amm": 5845,
      "ĠAv": 5846,
      "Ġmoral": 5847,
      "Ġvalid": 5848,
      "mosp": 5849,
      "Ġpictures": 5850,
      "Ġtradition": 5851,
      "Ġsplit": 5852,
      "uts": 5853,
      "Ġpublicly": 5854,
      "Ġwidely": 5855,
      "Ġexplan": 5856,
      "Ġdepart": 5857,
      "Ġreference": 5858,
      "Ġpassing": 5859,
      "ĠSum": 5860,
      "Ġexcell": 5861,
      "Well": 5862,
      "pet": 5863,
      "ĠMedia": 5864,
      "aped": 5865,
      "Ġconfirm": 5866,
      "host": 5867,
      "Ġappropriate": 5868,
      "Other": 5869,
      "ighters": 5870,
      "Ġleaves": 5871,
      "Ġsuffered": 5872,
      "Ġexplos": 5873,
      "ĠSystem": 5874,
      "Ġguns": 5875,
      "MA": 5876,
      "ĠScience": 5877,
      "ĠWeek": 5878,
      "Ġexperiences": 5879,
      "ĠMatt": 5880,
      "hab": 5881,
      "usiness": 5882,
      "Ġstatements": 5883,
      "Ġplayoff": 5884,
      "Ġobjects": 5885,
      "Ġrealize": 5886,
      "Ġec": 5887,
      "Ġburn": 5888,
      "arters": 5889,
      "istered": 5890,
      "Ġnumerous": 5891,
      "called": 5892,
      "ĠHen": 5893,
      "Ġwear": 5894,
      "ĠBet": 5895,
      "ller": 5896,
      "unte": 5897,
      "Ġadvice": 5898,
      "During": 5899,
      "Ġquiet": 5900,
      "ador": 5901,
      "TH": 5902,
      "ĠSky": 5903,
      "Ġacadem": 5904,
      "Ġreportedly": 5905,
      "uations": 5906,
      "Ġ\\": 5907,
      "Ġlibrary": 5908,
      "Ġactivists": 5909,
      ",[": 5910,
      "Ġsac": 5911,
      "Ġpool": 5912,
      "Ġdrivers": 5913,
      "pass": 5914,
      "ĠHy": 5915,
      "Ġedge": 5916,
      "Ġshop": 5917,
      "Ġregime": 5918,
      "Ġfindings": 5919,
      "Ġelimin": 5920,
      "Ġforget": 5921,
      "ĠSign": 5922,
      "Ġconcentr": 5923,
      "Ġourselves": 5924,
      "Ġmotiv": 5925,
      "ĠMa": 5926,
      "Ġunable": 5927,
      "Ġencoun": 5928,
      "sts": 5929,
      "Ġcapable": 5930,
      "Ġargue": 5931,
      "Ġlabel": 5932,
      "Ġessentially": 5933,
      "esome": 5934,
      "Ġviolent": 5935,
      "tion": 5936,
      "astern": 5937,
      "rawn": 5938,
      "Ġopponent": 5939,
      "Ġongoing": 5940,
      "Res": 5941,
      "Ġbroadcast": 5942,
      "arn": 5943,
      "ĠGrand": 5944,
      "Ġcoast": 5945,
      "Ġreaders": 5946,
      "oken": 5947,
      "Ġnewspaper": 5948,
      "Ġexercise": 5949,
      "edd": 5950,
      "ĠMichigan": 5951,
      "acle": 5952,
      "Ġupdates": 5953,
      "acter": 5954,
      "ĠWal": 5955,
      "ellow": 5956,
      "ternal": 5957,
      "ĠAndrew": 5958,
      "ĠLabour": 5959,
      "employ": 5960,
      "Ġwalking": 5961,
      "Ġoffense": 5962,
      "ĠYet": 5963,
      "writ": 5964,
      "PU": 5965,
      "vin": 5966,
      "adow": 5967,
      "Ġlegit": 5968,
      "Ġpicked": 5969,
      "Ġordered": 5970,
      "Ġconstitution": 5971,
      "Ġfacts": 5972,
      "Ġcentre": 5973,
      "uy": 5974,
      "Ġcircumst": 5975,
      "Ġloved": 5976,
      "isters": 5977,
      "Ġcrack": 5978,
      "Ġliberal": 5979,
      "Over": 5980,
      "Ġsecretary": 5981,
      "Ġpanel": 5982,
      "ounded": 5983,
      "Ġcontains": 5984,
      "ilty": 5985,
      "ĠIll": 5986,
      "Ġeval": 5987,
      "Ġreporting": 5988,
      "Ġpatient": 5989,
      "irty": 5990,
      "Ġplants": 5991,
      "Ġvari": 5992,
      "evin": 5993,
      "Many": 5994,
      "oral": 5995,
      "resents": 5996,
      "Ġbike": 5997,
      "illance": 5998,
      "intend": 5999,
      "sters": 6000,
      "ĠFollow": 6001,
      "Ġtalked": 6002,
      "Ġroute": 6003,
      "Ġeditor": 6004,
      "Ġmovies": 6005,
      "mates": 6006,
      "edy": 6007,
      "Ġlawyer": 6008,
      "Te": 6009,
      "Ġcauses": 6010,
      "gia": 6011,
      "Ġgra": 6012,
      "illy": 6013,
      "Ġseat": 6014,
      "war": 6015,
      "ishes": 6016,
      "Ġexplains": 6017,
      "SS": 6018,
      "odd": 6019,
      "sex": 6020,
      "Ġwaste": 6021,
      "Ġeffectively": 6022,
      "Ġdeclined": 6023,
      "Ġimproved": 6024,
      "Ġagents": 6025,
      "nergy": 6026,
      "Ġinjured": 6027,
      "angers": 6028,
      "Ġfilled": 6029,
      "ĠMs": 6030,
      "Ġsubstant": 6031,
      "arl": 6032,
      "ĠCub": 6033,
      "ĠIreland": 6034,
      "Ġtransition": 6035,
      "enda": 6036,
      "Ġbuildings": 6037,
      "Cont": 6038,
      "Ġ</": 6039,
      "ĠShow": 6040,
      "Ġscheduled": 6041,
      "dule": 6042,
      "Ġforg": 6043,
      "Ġrow": 6044,
      "orders": 6045,
      "Ġfaced": 6046,
      "Most": 6047,
      "Ġske": 6048,
      "ĠAfghanistan": 6049,
      "Ġarmed": 6050,
      "Ġemphas": 6051,
      "enture": 6052,
      "Ġdeclared": 6053,
      "can": 6054,
      "Ġsnow": 6055,
      "Ġentered": 6056,
      "Ġconnected": 6057,
      "ĠBrazil": 6058,
      "Ġdelivered": 6059,
      "Ġaccompl": 6060,
      "Ġhousehold": 6061,
      "ionally": 6062,
      "ĠRon": 6063,
      "rome": 6064,
      "Ġmissed": 6065,
      "ĠBack": 6066,
      "09": 6067,
      "Ġdiplom": 6068,
      "Ġinjuries": 6069,
      "ĠDou": 6070,
      "Ġast": 6071,
      "Ġscored": 6072,
      "Ġexamples": 6073,
      "oves": 6074,
      "Ġdebut": 6075,
      "ĠPrem": 6076,
      "Ġ//": 6077,
      "ĠRev": 6078,
      "Ġgather": 6079,
      "uls": 6080,
      "uthors": 6081,
      "Ġphilosoph": 6082,
      "Î±": 6083,
      "Ġnative": 6084,
      "Ġsquare": 6085,
      "Ġrot": 6086,
      "Ð°": 6087,
      "Ġing": 6088,
      "Ġprin": 6089,
      "Ġadvanced": 6090,
      "Ġcriticism": 6091,
      "66": 6092,
      "def": 6093,
      "Ġrain": 6094,
      "Ġalcohol": 6095,
      "Ġtech": 6096,
      "ocket": 6097,
      "Ġmal": 6098,
      "Ġinput": 6099,
      "ĠTechn": 6100,
      "long": 6101,
      "Follow": 6102,
      "Ġ1980": 6103,
      "Ġresc": 6104,
      ",âĢĻ": 6105,
      "Ġbehavi": 6106,
      "Ġproud": 6107,
      "ĠLake": 6108,
      "Ġresident": 6109,
      "asure": 6110,
      "Ġshots": 6111,
      "elly": 6112,
      "Ġmir": 6113,
      "Ġstores": 6114,
      "Ġterrorist": 6115,
      "ĠDevelop": 6116,
      "Ġjoint": 6117,
      "ĠSeattle": 6118,
      "Ġmanufacture": 6119,
      "Ġathlet": 6120,
      "Ġperformed": 6121,
      "Ġnations": 6122,
      "Ġflag": 6123,
      "Ġbutton": 6124,
      "Ġannouncement": 6125,
      "Ġcombination": 6126,
      "Ġlinked": 6127,
      "57": 6128,
      "Ġrein": 6129,
      "Ġrail": 6130,
      "formation": 6131,
      "Ġsad": 6132,
      "Ġcooper": 6133,
      "icing": 6134,
      "Ġbrings": 6135,
      "irds": 6136,
      "Ġcann": 6137,
      "Then": 6138,
      "Ġinitially": 6139,
      "Ġsam": 6140,
      "Ġbot": 6141,
      "Ġthinks": 6142,
      "Ġperman": 6143,
      "Ġprotests": 6144,
      "Ġtree": 6145,
      "Yes": 6146,
      "ittle": 6147,
      "Ġgovernor": 6148,
      "eration": 6149,
      "Ġlinks": 6150,
      "Ġdoctor": 6151,
      "Ġflo": 6152,
      "Ġconsequences": 6153,
      "Ġthoughts": 6154,
      "Man": 6155,
      "ĠHist": 6156,
      "pty": 6157,
      "Ġallegations": 6158,
      "ĠUkraine": 6159,
      "uous": 6160,
      "ĠKim": 6161,
      "Ġresolution": 6162,
      "ĠCy": 6163,
      "Ġfacility": 6164,
      "Ġmaterials": 6165,
      "sembly": 6166,
      "Ġrestaurant": 6167,
      "Ġneither": 6168,
      "orse": 6169,
      "Ġdynam": 6170,
      "ĠLife": 6171,
      "ĠOnly": 6172,
      "Ġhistorical": 6173,
      "</": 6174,
      "Ġcraft": 6175,
      "Ġpure": 6176,
      "Ġimmigrants": 6177,
      "omin": 6178,
      "estival": 6179,
      "Ġfranch": 6180,
      "Although": 6181,
      "ansas": 6182,
      "Ġmarried": 6183,
      "word": 6184,
      "Ġbond": 6185,
      "Ġfairly": 6186,
      "Ġnetworks": 6187,
      "88": 6188,
      "Ġsuc": 6189,
      "Ġsongs": 6190,
      "MS": 6191,
      "Ġinvestors": 6192,
      "Ġnearby": 6193,
      "Ĥ¬": 6194,
      "Ġincreases": 6195,
      "ĠSwed": 6196,
      "OD": 6197,
      "ĠBlue": 6198,
      "Ġpractices": 6199,
      "twitter": 6200,
      "ĠJul": 6201,
      "Ġartist": 6202,
      "Ġwarm": 6203,
      "ĠMount": 6204,
      "ĠWood": 6205,
      "Ġincor": 6206,
      "ĠCard": 6207,
      "umber": 6208,
      "Ġnecessarily": 6209,
      "Ġ2001": 6210,
      "ĠMuslims": 6211,
      "Ġeverybody": 6212,
      "LS": 6213,
      "Ġpra": 6214,
      "ĠLib": 6215,
      "essor": 6216,
      "Ġyounger": 6217,
      "ĠScot": 6218,
      "\":\"": 6219,
      "Ġcolumn": 6220,
      "Ġclassic": 6221,
      "Ġmagazine": 6222,
      "Ġkit": 6223,
      "Ġoutput": 6224,
      "Ġspons": 6225,
      "ERS": 6226,
      "Ġfraud": 6227,
      "Ġhell": 6228,
      "Ġfunctions": 6229,
      "Ġboys": 6230,
      "Ġtort": 6231,
      "itors": 6232,
      "Ġmyster": 6233,
      "Ġyesterday": 6234,
      "Tube": 6235,
      "dis": 6236,
      "Ġdiscussed": 6237,
      "Ġalt": 6238,
      "name": 6239,
      "icious": 6240,
      "Ġcurrency": 6241,
      "Ġbag": 6242,
      "Ġabandon": 6243,
      "Ġlock": 6244,
      "ĠBat": 6245,
      "En": 6246,
      "ĠRE": 6247,
      "ĠVict": 6248,
      "Ġplane": 6249,
      "Ġguilty": 6250,
      "ĠAsia": 6251,
      "law": 6252,
      "Ġemails": 6253,
      "TA": 6254,
      "........": 6255,
      "ĠBoard": 6256,
      "zona": 6257,
      "Ġarticles": 6258,
      "Ġbegins": 6259,
      "Ġexistence": 6260,
      "west": 6261,
      "Ġadds": 6262,
      "aza": 6263,
      "Ġexpansion": 6264,
      "Ġfollows": 6265,
      "Ġapplied": 6266,
      "ko": 6267,
      "American": 6268,
      "ĠRead": 6269,
      "pes": 6270,
      "Ġaf": 6271,
      "Ġexpression": 6272,
      "Ġbare": 6273,
      "Ġatmosp": 6274,
      "ĠSee": 6275,
      "ĠPhot": 6276,
      "Ġlisted": 6277,
      "Can": 6278,
      "athan": 6279,
      "ĠGen": 6280,
      "ĠPen": 6281,
      "ĠSecond": 6282,
      "Ġadults": 6283,
      "Ġring": 6284,
      "ĠGames": 6285,
      "Ġtemperature": 6286,
      "ouston": 6287,
      "Ġenh": 6288,
      "Ġtotally": 6289,
      "Ġdecre": 6290,
      "IF": 6291,
      "Ġride": 6292,
      "Ġcontest": 6293,
      "fortunately": 6294,
      "pan": 6295,
      "Ġrepresents": 6296,
      "ulations": 6297,
      "Ġanywhere": 6298,
      "issions": 6299,
      "Ġconsumer": 6300,
      "ĠWhe": 6301,
      "Ġrising": 6302,
      "ĠOk": 6303,
      "',": 6304,
      "Ġ33": 6305,
      "Ġentry": 6306,
      "Ġ%": 6307,
      "weight": 6308,
      "Ġmoves": 6309,
      "usal": 6310,
      "whel": 6311,
      "born": 6312,
      "erg": 6313,
      "Ġwins": 6314,
      "ĠFar": 6315,
      "amin": 6316,
      "ĠRights": 6317,
      "Ġdefined": 6318,
      "Ġsurprised": 6319,
      "Ã¤": 6320,
      "Ġcreative": 6321,
      "alian": 6322,
      "Ġcustomer": 6323,
      "Ġ38": 6324,
      "Ġroughly": 6325,
      "Spe": 6326,
      "Ġflood": 6327,
      "llect": 6328,
      "Ġversions": 6329,
      "Ġaccepted": 6330,
      "Ġdesire": 6331,
      "Ġdemocracy": 6332,
      "style": 6333,
      "Ġvice": 6334,
      "iat": 6335,
      "Ġcorrespond": 6336,
      "Ġdistribution": 6337,
      "Ġmarketing": 6338,
      "duc": 6339,
      "Ġwarning": 6340,
      "Ġtow": 6341,
      "ĠNBA": 6342,
      "Ġimportance": 6343,
      "Ġreplaced": 6344,
      "ĠClub": 6345,
      "ym": 6346,
      "ĠOhio": 6347,
      "Ġbuying": 6348,
      "Ġtermin": 6349,
      "iger": 6350,
      "Ġ300": 6351,
      "Oh": 6352,
      "Ġmetal": 6353,
      "Ġbug": 6354,
      "Ġrum": 6355,
      "opy": 6356,
      "Ġheads": 6357,
      "ĠWik": 6358,
      "Ġrally": 6359,
      "Ġboss": 6360,
      "Ġsav": 6361,
      "Ġhoping": 6362,
      "ĠBarack": 6363,
      "Ġhat": 6364,
      "Ġfill": 6365,
      "Ġremark": 6366,
      "Ġwarned": 6367,
      "Ġthreats": 6368,
      "ĠDavis": 6369,
      "UR": 6370,
      "oked": 6371,
      "ideo": 6372,
      "Ġhardware": 6373,
      "ollywood": 6374,
      "03": 6375,
      "Ġisland": 6376,
      "Ġ37": 6377,
      "ĠISIS": 6378,
      "Ġwire": 6379,
      "ĠSaudi": 6380,
      "Ġsucceed": 6381,
      "greg": 6382,
      "Ġsought": 6383,
      "ĠEach": 6384,
      "Ġsubsequ": 6385,
      "07": 6386,
      "Ġsees": 6387,
      "Ġconsistent": 6388,
      "Ġfashion": 6389,
      "Ġextent": 6390,
      "Ob": 6391,
      "Ġnarr": 6392,
      "Ġrefugees": 6393,
      "abb": 6394,
      "inem": 6395,
      "ĠAnother": 6396,
      "otic": 6397,
      "Ġmanage": 6398,
      "Ġpushed": 6399,
      "iest": 6400,
      "Ġplot": 6401,
      "active": 6402,
      "Ġcompetitive": 6403,
      "Ġradical": 6404,
      "Ġshif": 6405,
      "andal": 6406,
      "ĠColumb": 6407,
      "pret": 6408,
      "AF": 6409,
      "gent": 6410,
      "Ġessential": 6411,
      "esc": 6412,
      "Ġegg": 6413,
      "Ġprohib": 6414,
      "Ġbreaking": 6415,
      "Ġdeaths": 6416,
      "Ġreceiving": 6417,
      "ĠÏ": 6418,
      "tering": 6419,
      "Ġnav": 6420,
      "ĠInf": 6421,
      "Ġrelevant": 6422,
      "Ġbright": 6423,
      "Ġbattery": 6424,
      "rant": 6425,
      "Ġtournament": 6426,
      "Ġstring": 6427,
      "ĠIts": 6428,
      "game": 6429,
      "ĠDC": 6430,
      "Ġphen": 6431,
      "ensus": 6432,
      "po": 6433,
      "erate": 6434,
      "Ġcere": 6435,
      "Ġindustrial": 6436,
      "68": 6437,
      "Ġholds": 6438,
      "ÃŃ": 6439,
      "hips": 6440,
      "Ġ49": 6441,
      "Ġfewer": 6442,
      "Ġchart": 6443,
      "arden": 6444,
      "ĠAff": 6445,
      "print": 6446,
      "Ġsomewhat": 6447,
      "Ġunlikely": 6448,
      "ĠPR": 6449,
      "Ġheavily": 6450,
      "rum": 6451,
      "Ġsharing": 6452,
      "Ġemotional": 6453,
      "Ġstorage": 6454,
      "Ġsem": 6455,
      "Ġclosely": 6456,
      "Ġopposite": 6457,
      "Ġfixed": 6458,
      "Ġschol": 6459,
      "Ġisol": 6460,
      "ĠRam": 6461,
      "Ġtargeted": 6462,
      "Ġreturns": 6463,
      "Ġteachers": 6464,
      "Ġdecline": 6465,
      "Ġcomfortable": 6466,
      "ician": 6467,
      "Ġlie": 6468,
      "ĠGM": 6469,
      "Se": 6470,
      "ĠStan": 6471,
      "Ġdivision": 6472,
      "ĠView": 6473,
      "Ġwithd": 6474,
      "Ġacts": 6475,
      "ĠKorean": 6476,
      "Ġlawsuit": 6477,
      "Ġfemin": 6478,
      "Pol": 6479,
      "See": 6480,
      "Ġgrown": 6481,
      "Ġimmediate": 6482,
      "atell": 6483,
      "ĠMaybe": 6484,
      "ĠSports": 6485,
      "Ġclasses": 6486,
      "Ġsurveillance": 6487,
      "friend": 6488,
      "obb": 6489,
      "ĠChristmas": 6490,
      "Ġbon": 6491,
      "oma": 6492,
      "Ġcampus": 6493,
      "--------------------------------": 6494,
      "Ġcert": 6495,
      "Ġlaugh": 6496,
      "Ġfort": 6497,
      "ĠImage": 6498,
      "ĠMen": 6499,
      "ulous": 6500,
      "Ġblow": 6501,
      "ĠID": 6502,
      "ĠEric": 6503,
      "ĠConstitution": 6504,
      "Ġinfl": 6505,
      "aylor": 6506,
      "Ġdetailed": 6507,
      "ĠWars": 6508,
      "Ġthread": 6509,
      "Ġhur": 6510,
      "adel": 6511,
      "Ġparliament": 6512,
      "Ġregulations": 6513,
      "Ġallegedly": 6514,
      "ĠGra": 6515,
      "Ġadm": 6516,
      "Ġartists": 6517,
      "Ġmoments": 6518,
      "amily": 6519,
      "Ġstood": 6520,
      "ĠArch": 6521,
      "Ġjourney": 6522,
      "Ġefficient": 6523,
      "Ġvolume": 6524,
      "\",\"": 6525,
      "Ġevolution": 6526,
      "Ġdownt": 6527,
      "ĠCharles": 6528,
      "04": 6529,
      "NS": 6530,
      "ocratic": 6531,
      "Ġsuffering": 6532,
      "bar": 6533,
      "Ġdatab": 6534,
      "zy": 6535,
      "chen": 6536,
      "Ġearned": 6537,
      "Ġrequirements": 6538,
      "54": 6539,
      "Ġhotel": 6540,
      "stood": 6541,
      "Ġassets": 6542,
      "Ġharder": 6543,
      "ĠBrook": 6544,
      "================": 6545,
      "Co": 6546,
      "Ġsample": 6547,
      "oming": 6548,
      "Ġcarrying": 6549,
      "ĠValley": 6550,
      "ĠSov": 6551,
      "Ġembr": 6552,
      "ĠColorado": 6553,
      "ĠWalk": 6554,
      "Ġtargets": 6555,
      "Ġtiny": 6556,
      "rip": 6557,
      "Ġdesk": 6558,
      "Ġbatt": 6559,
      "Ġcoffee": 6560,
      "Ġpromise": 6561,
      "Ġacknowled": 6562,
      "Ġcircumstances": 6563,
      "ordan": 6564,
      "52": 6565,
      "ads": 6566,
      "ĠHel": 6567,
      "Ġconfig": 6568,
      "nic": 6569,
      "utch": 6570,
      "Ã³": 6571,
      "Ġupdated": 6572,
      "OC": 6573,
      "ĠPolicy": 6574,
      "Ġzero": 6575,
      "Ġvolunte": 6576,
      "nam": 6577,
      "ĠEconom": 6578,
      "Ġcheap": 6579,
      "53": 6580,
      "Ġprotesters": 6581,
      "Ġpushing": 6582,
      "Ġexcellent": 6583,
      "Ġsymbol": 6584,
      "erves": 6585,
      "iami": 6586,
      "Ġowned": 6587,
      "Ġrefere": 6588,
      "ĠArizona": 6589,
      "ĠElect": 6590,
      "ena": 6591,
      "luding": 6592,
      "efully": 6593,
      "Ġposts": 6594,
      "anes": 6595,
      "oster": 6596,
      "Ġcolleagues": 6597,
      "Ġprotected": 6598,
      "Ġlicense": 6599,
      "Ġskill": 6600,
      "ĠCNN": 6601,
      "TS": 6602,
      "rich": 6603,
      "va": 6604,
      "ĠAut": 6605,
      "ĠNY": 6606,
      "Ġ2002": 6607,
      "avor": 6608,
      "Ġparticipants": 6609,
      "Ġmine": 6610,
      "Ġalongside": 6611,
      "etroit": 6612,
      "hus": 6613,
      "Ġapproval": 6614,
      "Ġauthors": 6615,
      "olve": 6616,
      "Ġvan": 6617,
      "Ġtrick": 6618,
      "ĠVol": 6619,
      "Ġstrange": 6620,
      "Ġtested": 6621,
      "Ġdescribe": 6622,
      "Ġserving": 6623,
      "Ġcrazy": 6624,
      "Ġfish": 6625,
      "Ġdoctors": 6626,
      "bel": 6627,
      "Ġwalked": 6628,
      "DS": 6629,
      "Add": 6630,
      "you": 6631,
      "ademy": 6632,
      "Ġsimpl": 6633,
      "Ġfeatured": 6634,
      "Ġfavour": 6635,
      "rive": 6636,
      "ĠYouTube": 6637,
      "Ġagenda": 6638,
      "Ġ48": 6639,
      "Ġchain": 6640,
      "Ġsigning": 6641,
      "ĠBoy": 6642,
      "Ġdiagn": 6643,
      "ĠSar": 6644,
      "iveness": 6645,
      "foot": 6646,
      "Ġfacilities": 6647,
      "acking": 6648,
      "ĠTem": 6649,
      "Ġacting": 6650,
      "Ġstruck": 6651,
      "Ġinspired": 6652,
      "Ġtom": 6653,
      "Ġsister": 6654,
      "ometimes": 6655,
      "ĠYoung": 6656,
      "ĠYear": 6657,
      "ĠAnn": 6658,
      "Ġnewslet": 6659,
      "rison": 6660,
      "Ġsand": 6661,
      "Ġpic": 6662,
      "Ġuniverse": 6663,
      "Ġcycle": 6664,
      "ĠHouston": 6665,
      "Ġcrash": 6666,
      "gas": 6667,
      "ĠDie": 6668,
      "Ġfrequently": 6669,
      "isms": 6670,
      "ĠBob": 6671,
      "Ġfolks": 6672,
      "ĠLong": 6673,
      "Ġsurrounding": 6674,
      "Ġusual": 6675,
      "Ġanyway": 6676,
      "Ġpip": 6677,
      "oration": 6678,
      "Ġupcoming": 6679,
      "onna": 6680,
      "Ġbasket": 6681,
      "uable": 6682,
      "ĠChild": 6683,
      "Ġsending": 6684,
      "ĠKn": 6685,
      "Ã¶": 6686,
      "ĠEll": 6687,
      "Ġintention": 6688,
      "Ġtransp": 6689,
      "list": 6690,
      "ican": 6691,
      "cho": 6692,
      "ographic": 6693,
      "Ġreferred": 6694,
      "Ġrepeatedly": 6695,
      "ĠRomney": 6696,
      "ĠTop": 6697,
      "Donald": 6698,
      "Ġunus": 6699,
      "allas": 6700,
      "Ġancient": 6701,
      "ĠRoman": 6702,
      "Ġmeat": 6703,
      "iro": 6704,
      "ĠBas": 6705,
      "Ġattempted": 6706,
      "Like": 6707,
      "Ġexhib": 6708,
      "ĠEnergy": 6709,
      "Ġsick": 6710,
      "ĠSpanish": 6711,
      "May": 6712,
      "Ġrisks": 6713,
      "Ġdedicated": 6714,
      "Or": 6715,
      "kel": 6716,
      "ĠPS": 6717,
      "âĢĶâĢĶ": 6718,
      "Ġwinter": 6719,
      "Ġrape": 6720,
      "Ġdu": 6721,
      "Ġsuicide": 6722,
      "ĠJava": 6723,
      "Ġregional": 6724,
      "hetic": 6725,
      "ĠGar": 6726,
      "Ġformat": 6727,
      "Ġcommitment": 6728,
      "iques": 6729,
      "Ġmotion": 6730,
      ">>": 6731,
      "Ġknowing": 6732,
      "Ġmagn": 6733,
      "Ġschedule": 6734,
      "ĠCam": 6735,
      "Ġcontroversial": 6736,
      "ta": 6737,
      "acc": 6738,
      "02": 6739,
      "ĠDev": 6740,
      "rors": 6741,
      "Ġ34": 6742,
      "ĠJesus": 6743,
      "Ġinstru": 6744,
      "Ġrealized": 6745,
      "Ġshel": 6746,
      "Ġmanner": 6747,
      "Ġguide": 6748,
      "ĠFil": 6749,
      "Ġcausing": 6750,
      "itarian": 6751,
      "inson": 6752,
      "ocation": 6753,
      "Ġexplore": 6754,
      "ayers": 6755,
      "ologist": 6756,
      "Ġlatter": 6757,
      "VER": 6758,
      "Ġmouth": 6759,
      "ĠCatholic": 6760,
      "ĠOld": 6761,
      "ura": 6762,
      "ĠWild": 6763,
      "ĠBrad": 6764,
      "People": 6765,
      "Ġapproximately": 6766,
      "ĠEnd": 6767,
      "Ġlies": 6768,
      "Two": 6769,
      "Ġformed": 6770,
      "Ġreput": 6771,
      "Ġvirtual": 6772,
      "Ġsyn": 6773,
      "Ġconfront": 6774,
      "ĠAdam": 6775,
      "Ġkinds": 6776,
      "Ġunp": 6777,
      "Ġgap": 6778,
      "ĠEr": 6779,
      "Ġintent": 6780,
      "certain": 6781,
      "ĠPalestinian": 6782,
      "ixt": 6783,
      "Despite": 6784,
      "ĠSC": 6785,
      "Ġdeeply": 6786,
      "Ġrelationships": 6787,
      "ĠDown": 6788,
      "Ġeating": 6789,
      "Ġpregn": 6790,
      "Ġadapt": 6791,
      "Ġmainstream": 6792,
      "mo": 6793,
      "ĠGeorgia": 6794,
      "Ġwelcome": 6795,
      "Ġpromised": 6796,
      "ĠDefense": 6797,
      "Ġstudio": 6798,
      "06": 6799,
      "âĢĻ.": 6800,
      "iciency": 6801,
      "ĠPan": 6802,
      "ĠWater": 6803,
      "Ġsentence": 6804,
      "Ġsky": 6805,
      "alle": 6806,
      "ĠMax": 6807,
      "Ġselection": 6808,
      "Ġoblig": 6809,
      "ĠAgain": 6810,
      "Ġscheme": 6811,
      "Ġfundamental": 6812,
      "uan": 6813,
      "Ġfold": 6814,
      "Ġstream": 6815,
      "ora": 6816,
      "Ġproperly": 6817,
      "otal": 6818,
      "Ġobserved": 6819,
      "fire": 6820,
      "Ġcommunication": 6821,
      "ugh": 6822,
      "ceived": 6823,
      "ĠIP": 6824,
      "ĠItaly": 6825,
      "uated": 6826,
      "Ġdefinition": 6827,
      "Ġdress": 6828,
      "ĠMiller": 6829,
      "awa": 6830,
      "Ġremote": 6831,
      "Ġdestroyed": 6832,
      "Per": 6833,
      "Ġdry": 6834,
      "Ġaside": 6835,
      "Ġmistake": 6836,
      "Ġoverwhel": 6837,
      "Ġproof": 6838,
      "ĠSociety": 6839,
      "Ġchairman": 6840,
      "Ġwage": 6841,
      "ĠDark": 6842,
      "Ġarguments": 6843,
      "ĠWatch": 6844,
      "Ġputs": 6845,
      "Ġmob": 6846,
      "iments": 6847,
      "Ġdeveloper": 6848,
      "ĠAgency": 6849,
      "woman": 6850,
      "Ġgod": 6851,
      "ĠMot": 6852,
      "asks": 6853,
      "Ġpled": 6854,
      "ĠVan": 6855,
      "Ġdepth": 6856,
      "Ġexciting": 6857,
      "Ġchannel": 6858,
      "Ġlocations": 6859,
      "utral": 6860,
      "Ġuncle": 6861,
      "ĠSupp": 6862,
      "Ġchose": 6863,
      "ĠKevin": 6864,
      "ĠJersey": 6865,
      "chers": 6866,
      "asts": 6867,
      "ĠTal": 6868,
      "Ġtheme": 6869,
      "ĠPutin": 6870,
      "igg": 6871,
      "Ġsho": 6872,
      "51": 6873,
      "cers": 6874,
      "gor": 6875,
      "owered": 6876,
      "Ġunknown": 6877,
      "da": 6878,
      "Ġintellect": 6879,
      "Ġemployee": 6880,
      "Ġnarrow": 6881,
      "Ġrecognize": 6882,
      "ĠDi": 6883,
      "aze": 6884,
      "ua": 6885,
      "Ġsupports": 6886,
      "Ġheight": 6887,
      "Ġopponents": 6888,
      "press": 6889,
      "Ġtopic": 6890,
      "Ġillustr": 6891,
      "Ġsole": 6892,
      "phy": 6893,
      "Ġfuck": 6894,
      "Ġblame": 6895,
      "Ġstretch": 6896,
      "Ġflu": 6897,
      "Ġgoods": 6898,
      "Ġwatched": 6899,
      "Ġsubsid": 6900,
      "Ġmatches": 6901,
      "Ġproperties": 6902,
      "________________": 6903,
      "Ġwave": 6904,
      "Ġmaximum": 6905,
      "Ġcart": 6906,
      "tes": 6907,
      "ystem": 6908,
      "sole": 6909,
      "Ġdealing": 6910,
      "Ġtypical": 6911,
      "xual": 6912,
      "Ġhall": 6913,
      "Ġprecise": 6914,
      "Ġreward": 6915,
      "ĠAL": 6916,
      "gender": 6917,
      "Ġpenalty": 6918,
      "Ġmerely": 6919,
      "Ġsweet": 6920,
      "Ġteacher": 6921,
      "Ġunemploy": 6922,
      "raph": 6923,
      "ĠMic": 6924,
      "ĠRight": 6925,
      "ĠIns": 6926,
      "ĠAdministr": 6927,
      "Ã¼": 6928,
      "redit": 6929,
      "Ġdiscover": 6930,
      "ĠHollywood": 6931,
      "osis": 6932,
      "Ġdecent": 6933,
      "Ġexposed": 6934,
      "Ġpaint": 6935,
      "sell": 6936,
      "iana": 6937,
      "onymous": 6938,
      "ĠBest": 6939,
      "agan": 6940,
      "Ġ1970": 6941,
      "ĠCruz": 6942,
      "Ġforth": 6943,
      "regon": 6944,
      "Ġencourage": 6945,
      "Ġterritory": 6946,
      "Ġchat": 6947,
      "apse": 6948,
      "Ġwake": 6949,
      "Ġrequests": 6950,
      "Ġextended": 6951,
      "Ġnomine": 6952,
      "Ġlikes": 6953,
      "ĠDaniel": 6954,
      "Ġorders": 6955,
      "Ġdefeat": 6956,
      "post": 6957,
      "burg": 6958,
      "orted": 6959,
      "Ġprofit": 6960,
      "ĠCIA": 6961,
      "Ġdeals": 6962,
      "ensity": 6963,
      "Ġprovince": 6964,
      "Ġjournalists": 6965,
      "Ġcongress": 6966,
      "Ġattacked": 6967,
      "ĠJews": 6968,
      "ether": 6969,
      "ĠCle": 6970,
      "azi": 6971,
      "ĠNASA": 6972,
      "Ð¸": 6973,
      "Ġemissions": 6974,
      "Ġempty": 6975,
      "ingu": 6976,
      "ĠDar": 6977,
      "ockey": 6978,
      "Ġsuppl": 6979,
      "Ġconstant": 6980,
      "ati": 6981,
      "ĠTit": 6982,
      "axy": 6983,
      "Ġpromote": 6984,
      "Ġnorthern": 6985,
      "Ġaspects": 6986,
      "Ġwest": 6987,
      "ĠCat": 6988,
      "keep": 6989,
      "Ġsym": 6990,
      "Ġlimits": 6991,
      "Ġgang": 6992,
      "ĠMiami": 6993,
      "Ġliterally": 6994,
      "69": 6995,
      "Ġfranchise": 6996,
      "Ġpassion": 6997,
      "ĠCarl": 6998,
      "Fr": 6999,
      "Ġcomprom": 7000,
      "ĠJr": 7001,
      "Ġurban": 7002,
      "Ġwal": 7003,
      "icer": 7004,
      "GBT": 7005,
      "Ġicon": 7006,
      "ogan": 7007,
      "Ġshit": 7008,
      "Ġassume": 7009,
      "Ġideal": 7010,
      "ĠLand": 7011,
      "Ġbear": 7012,
      "Ġselected": 7013,
      "ĠStand": 7014,
      "Ġinvolving": 7015,
      "Ġsomewhere": 7016,
      "EW": 7017,
      "Ġped": 7018,
      "Rel": 7019,
      "Ġrub": 7020,
      "Ġconspir": 7021,
      "ĠEnter": 7022,
      "Ġties": 7023,
      "Ġalive": 7024,
      "Ġmedic": 7025,
      "Ġretire": 7026,
      "Ġflex": 7027,
      "Ġchampion": 7028,
      "Ġdisag": 7029,
      "Ġbrew": 7030,
      "Ġnarrative": 7031,
      "++": 7032,
      "Ġreasonable": 7033,
      "mun": 7034,
      "ãĢĵ": 7035,
      "HS": 7036,
      "aug": 7037,
      "Ġdemands": 7038,
      "Ġcritics": 7039,
      "CE": 7040,
      "Ġdesper": 7041,
      "Ġindex": 7042,
      "Ġpunish": 7043,
      "rary": 7044,
      "xy": 7045,
      "ĠHome": 7046,
      "Ġphenomen": 7047,
      "asters": 7048,
      "gery": 7049,
      "wan": 7050,
      "intendo": 7051,
      "Ġsouthern": 7052,
      "oft": 7053,
      "Ġparking": 7054,
      "Ġcutting": 7055,
      "arity": 7056,
      "cript": 7057,
      "Ġworried": 7058,
      "Ġallies": 7059,
      "Any": 7060,
      "ĠIrish": 7061,
      "Ġliqu": 7062,
      "ĠWat": 7063,
      "ĠHas": 7064,
      "Ġtank": 7065,
      "lls": 7066,
      "ĠLord": 7067,
      "Ġtruck": 7068,
      "Î¿": 7069,
      "ĠAttorney": 7070,
      "adelph": 7071,
      "ĠOF": 7072,
      "Ġtechnologies": 7073,
      "Ġloan": 7074,
      "Ġinqu": 7075,
      "ĠCD": 7076,
      "pool": 7077,
      "Ġwid": 7078,
      "ĠDun": 7079,
      "ums": 7080,
      "enders": 7081,
      "ĠWomen": 7082,
      "Ġnoticed": 7083,
      "Ġextensive": 7084,
      "Ġimpressive": 7085,
      "lock": 7086,
      "ao": 7087,
      "Ġflying": 7088,
      "ĠReal": 7089,
      "Ġmachines": 7090,
      "Ġcommunications": 7091,
      "Ġsuddenly": 7092,
      "ÑĤ": 7093,
      "Ġperfectly": 7094,
      "Ġgaming": 7095,
      "Ġking": 7096,
      "Ġestimates": 7097,
      "wart": 7098,
      "ipl": 7099,
      "Ġabortion": 7100,
      "Ġequival": 7101,
      "Ed": 7102,
      "ĠOS": 7103,
      "Ġstronger": 7104,
      "ĠServices": 7105,
      "ĠItalian": 7106,
      "Ġcrypt": 7107,
      "Ġfees": 7108,
      "ciples": 7109,
      "Ġgenerate": 7110,
      "uilding": 7111,
      "Ġsustain": 7112,
      "Ġbunch": 7113,
      "Ġterrorism": 7114,
      "ĠHun": 7115,
      "zens": 7116,
      "imp": 7117,
      "ĠLight": 7118,
      "Ġfields": 7119,
      "Ġawesome": 7120,
      "Ġcategory": 7121,
      "ĠStephen": 7122,
      "icken": 7123,
      "Ġcomparison": 7124,
      "adelphia": 7125,
      "Ġdriven": 7126,
      "CS": 7127,
      "John": 7128,
      "ĠBrian": 7129,
      "Ġengage": 7130,
      "ĠAsian": 7131,
      "ĠSoviet": 7132,
      "raid": 7133,
      "Ġevil": 7134,
      "Ġconsumption": 7135,
      "Ġbid": 7136,
      "Ġconver": 7137,
      "ria": 7138,
      "Ġamounts": 7139,
      "Ġparam": 7140,
      "Ġmeetings": 7141,
      "ĠPolit": 7142,
      "Ġtrading": 7143,
      "Ġdrag": 7144,
      "79": 7145,
      "emen": 7146,
      "Ġdeleg": 7147,
      "emies": 7148,
      "Ġescape": 7149,
      "Ġdiet": 7150,
      "Ġretain": 7151,
      "Ġpersonally": 7152,
      "sea": 7153,
      "CA": 7154,
      "Ġdeck": 7155,
      "Ġsituations": 7156,
      "Ġstrongly": 7157,
      "ĠDetroit": 7158,
      "ĠDallas": 7159,
      "ĠGall": 7160,
      "ĠProgram": 7161,
      "nesota": 7162,
      "ĠNetwork": 7163,
      "ĠWin": 7164,
      "Ġphase": 7165,
      "Ġcounty": 7166,
      "ĠCompany": 7167,
      "Ġclaiming": 7168,
      "Ġanswers": 7169,
      "Ġslowly": 7170,
      "LA": 7171,
      "verty": 7172,
      "celer": 7173,
      "ĠBull": 7174,
      "uke": 7175,
      "Ġsomehow": 7176,
      "Ġfasc": 7177,
      "rence": 7178,
      "Ġelsewhere": 7179,
      "Ġfifth": 7180,
      "Ġfalling": 7181,
      "ĠNight": 7182,
      "ĠThank": 7183,
      "ĠSk": 7184,
      "Ġcoordin": 7185,
      "Ġregions": 7186,
      "ĠDead": 7187,
      "Ġpayments": 7188,
      "sm": 7189,
      "ĠJordan": 7190,
      "Ġpayment": 7191,
      "ORE": 7192,
      "Ġactor": 7193,
      "Ġsquad": 7194,
      "Ġhonor": 7195,
      "boy": 7196,
      "Ġexcess": 7197,
      "Ġconstantly": 7198,
      "pected": 7199,
      "Ġaudio": 7200,
      "aus": 7201,
      "ĪĴ": 7202,
      "ĠHom": 7203,
      "Ġ39": 7204,
      "abis": 7205,
      "Ġpod": 7206,
      "MP": 7207,
      "ls": 7208,
      "Ġeast": 7209,
      "anges": 7210,
      "ĠColl": 7211,
      "Ġsignal": 7212,
      "oric": 7213,
      "Ġpoverty": 7214,
      "Ġanymore": 7215,
      "Ġcondem": 7216,
      "ĠAuthor": 7217,
      "Ġincl": 7218,
      "Ġresistance": 7219,
      "ĠRog": 7220,
      "ulture": 7221,
      "Ġprimarily": 7222,
      "ez": 7223,
      "Ġplastic": 7224,
      "Ġclients": 7225,
      ".\"[": 7226,
      "Ġtrees": 7227,
      "ĠDespite": 7228,
      "Ġhits": 7229,
      "aser": 7230,
      "Ġmayor": 7231,
      "Ġsolutions": 7232,
      "ĠDam": 7233,
      "Ġhyd": 7234,
      "Ġ64": 7235,
      "ĠClass": 7236,
      "Ġending": 7237,
      "Ġmixed": 7238,
      "Ġwinner": 7239,
      "ref": 7240,
      "ĠUt": 7241,
      "Ġ42": 7242,
      "era": 7243,
      "Ġkeeps": 7244,
      "Ġinstitution": 7245,
      "cr": 7246,
      "ifications": 7247,
      "kay": 7248,
      "Ġpolls": 7249,
      "kish": 7250,
      "Ġstim": 7251,
      "Ġcontrolled": 7252,
      "ĠFort": 7253,
      "Ġsoul": 7254,
      "arry": 7255,
      "acked": 7256,
      "ĠFord": 7257,
      "Ġexplanation": 7258,
      "ĠThough": 7259,
      "Ġincredible": 7260,
      "ĠNations": 7261,
      "Ġimper": 7262,
      "Ġroster": 7263,
      "rimination": 7264,
      "ĠSteven": 7265,
      "mod": 7266,
      "ĠEp": 7267,
      "Ġtall": 7268,
      "igation": 7269,
      "Ġfinds": 7270,
      "Ġgotten": 7271,
      "ĠConf": 7272,
      "teen": 7273,
      "ĠZeal": 7274,
      "Ġchoices": 7275,
      "Ġpurposes": 7276,
      "Ġunderstood": 7277,
      "Ġcaptured": 7278,
      "Ġvillage": 7279,
      "ĠSouthern": 7280,
      "ĠSpain": 7281,
      "Ġprofile": 7282,
      "Ġbitcoin": 7283,
      "Ġobtained": 7284,
      "ĠCamer": 7285,
      "Ġcompens": 7286,
      "ii": 7287,
      "Ġcontributed": 7288,
      "fast": 7289,
      "Ġtaste": 7290,
      "Ġtracks": 7291,
      "afe": 7292,
      "Ġdollar": 7293,
      "uma": 7294,
      "Ġdirected": 7295,
      "iscal": 7296,
      "86": 7297,
      "Ġinformed": 7298,
      "Ġdrinking": 7299,
      "Ġfir": 7300,
      "Ġupper": 7301,
      "Ġconclusion": 7302,
      "iner": 7303,
      "ĠBalt": 7304,
      "Ġrival": 7305,
      "Ġrig": 7306,
      "Ġreporter": 7307,
      "Today": 7308,
      "Ġpal": 7309,
      "Ġnobody": 7310,
      "apes": 7311,
      "Police": 7312,
      "stone": 7313,
      "Ġbench": 7314,
      "iform": 7315,
      "Ġelectricity": 7316,
      "ĠMS": 7317,
      "ĠOregon": 7318,
      "Ġworldwide": 7319,
      "Ġnewly": 7320,
      "EA": 7321,
      "Ġruled": 7322,
      "alo": 7323,
      "ilarly": 7324,
      "Ġoperate": 7325,
      "Ġsight": 7326,
      "ĠTest": 7327,
      "Ġchosen": 7328,
      "Ġemployment": 7329,
      "ĠCare": 7330,
      "Ġadmit": 7331,
      "NC": 7332,
      "cling": 7333,
      "Ġtied": 7334,
      "ĠTaylor": 7335,
      "%.": 7336,
      "ship": 7337,
      "there": 7338,
      "Ġhouses": 7339,
      "lla": 7340,
      "Ġrejected": 7341,
      "ĠScotland": 7342,
      "Ġfounder": 7343,
      "bro": 7344,
      "she": 7345,
      "ĠAh": 7346,
      "ĠLove": 7347,
      "Ġassistance": 7348,
      "otten": 7349,
      "inations": 7350,
      "owa": 7351,
      "Ġcontrols": 7352,
      "Once": 7353,
      "ĠWay": 7354,
      "Ġcontinuing": 7355,
      "inity": 7356,
      "ĠBru": 7357,
      "Ġcapture": 7358,
      "ĠTw": 7359,
      "unning": 7360,
      "Ġoutcome": 7361,
      "hent": 7362,
      "Ġofficially": 7363,
      "Off": 7364,
      "ĠWilson": 7365,
      "itals": 7366,
      "etary": 7367,
      "Ġcomponents": 7368,
      "Ġbills": 7369,
      "Ġcorruption": 7370,
      "Ġ150": 7371,
      "igure": 7372,
      "Ġthreatened": 7373,
      "Ġstuck": 7374,
      "Also": 7375,
      "Ġpilot": 7376,
      "Ġspin": 7377,
      "ĠOrgan": 7378,
      "Sec": 7379,
      "ĠKurd": 7380,
      "inder": 7381,
      "Ġ75": 7382,
      "lder": 7383,
      "ĠCast": 7384,
      "ĠHot": 7385,
      "Ġentit": 7386,
      "ĠSpecial": 7387,
      "Ġaggressive": 7388,
      "cow": 7389,
      "Ġmurd": 7390,
      "otes": 7391,
      "ĠFour": 7392,
      "izz": 7393,
      "Ġaccurate": 7394,
      "ĠWhere": 7395,
      "ĠEduc": 7396,
      "Ġdozen": 7397,
      "ĠBowl": 7398,
      "ĠAsh": 7399,
      "Ġprogramming": 7400,
      "anny": 7401,
      "Ġharass": 7402,
      "Ġphones": 7403,
      "inding": 7404,
      "Ġregularly": 7405,
      "Ġterrible": 7406,
      "ĠCivil": 7407,
      "ĠThanks": 7408,
      "ĠSea": 7409,
      "Ġincredibly": 7410,
      "agram": 7411,
      "Ġsomebody": 7412,
      "Ġcrucial": 7413,
      "ĠSnow": 7414,
      "Ġestate": 7415,
      "Ġcomplaint": 7416,
      "Com": 7417,
      "Ġconven": 7418,
      "Ġenable": 7419,
      "ĠParliament": 7420,
      "Ġdistinct": 7421,
      "Ġapartment": 7422,
      "Ġdogs": 7423,
      "ĠMoore": 7424,
      "ĠSn": 7425,
      "ĠGi": 7426,
      "Ġchances": 7427,
      "type": 7428,
      "Ġproved": 7429,
      "Ġorigin": 7430,
      "rep": 7431,
      "300": 7432,
      "ĠLabor": 7433,
      "Ġdrawn": 7434,
      "Ġriver": 7435,
      "Ġrecovery": 7436,
      "ashes": 7437,
      "Ġinterpret": 7438,
      "Ġexposure": 7439,
      "ker": 7440,
      "Ġrecording": 7441,
      "Ġvulnerable": 7442,
      "ĠOtt": 7443,
      "cles": 7444,
      "Ġenthus": 7445,
      "Ġinspir": 7446,
      "Ġsympt": 7447,
      "67": 7448,
      "Ġble": 7449,
      "mont": 7450,
      "ĠBell": 7451,
      "Ġatmosphere": 7452,
      "ked": 7453,
      "ali": 7454,
      "ĠId": 7455,
      "Ġroutine": 7456,
      "Ġanx": 7457,
      "ĠChampionship": 7458,
      "ãĢĵãĢĵ": 7459,
      "Ġstead": 7460,
      "Ġexists": 7461,
      "Col": 7462,
      "Ġpasses": 7463,
      "Ġcomputers": 7464,
      "ĠContin": 7465,
      "Ġorganized": 7466,
      "Ġrus": 7467,
      "Ġstrikes": 7468,
      "Ġworker": 7469,
      "Ġautomatically": 7470,
      "vy": 7471,
      "ĠKent": 7472,
      "ĠViet": 7473,
      "Ġveteran": 7474,
      "Ġinstalled": 7475,
      "Ġgenerated": 7476,
      "Ġcompete": 7477,
      "Ġru": 7478,
      "Ġcompre": 7479,
      "Ġpersonnel": 7480,
      "Ġtherap": 7481,
      "Ġaimed": 7482,
      "Ġgro": 7483,
      "Ġcourts": 7484,
      "Ġconstit": 7485,
      "ĠDisney": 7486,
      "Mar": 7487,
      "bour": 7488,
      "Ġboot": 7489,
      "Ġcomplicated": 7490,
      "Ġsurvive": 7491,
      "Ġconcluded": 7492,
      "ĠCoast": 7493,
      "Ġrepresented": 7494,
      "Ġcoalition": 7495,
      "ĠVictor": 7496,
      "Dr": 7497,
      "Ġsatell": 7498,
      "Ġmonit": 7499,
      "Ġregardless": 7500,
      "Ġtaught": 7501,
      "Ġracial": 7502,
      "ĠLinux": 7503,
      "Ġcomic": 7504,
      "Ġraising": 7505,
      "Ġdatabase": 7506,
      "owed": 7507,
      "Ġbaseball": 7508,
      "ĠLook": 7509,
      "aska": 7510,
      "Ġangry": 7511,
      "ĠData": 7512,
      "Ġenemies": 7513,
      "aire": 7514,
      "itar": 7515,
      "Ġbes": 7516,
      "Because": 7517,
      "Ġnut": 7518,
      "âĢĻ,": 7519,
      "ĠPhiladelphia": 7520,
      "89": 7521,
      "ĠTurn": 7522,
      "Ġweird": 7523,
      "rage": 7524,
      "Ġbrowser": 7525,
      "ĠZealand": 7526,
      "Ġpace": 7527,
      "Ġsuccessfully": 7528,
      "Ġelev": 7529,
      "Ġticket": 7530,
      "aun": 7531,
      "lers": 7532,
      "Ġaccomp": 7533,
      "Ġextrem": 7534,
      "Ġregistered": 7535,
      "rete": 7536,
      "elf": 7537,
      "Ġresulting": 7538,
      "ML": 7539,
      "Ġvisited": 7540,
      "inch": 7541,
      "ĠLew": 7542,
      "Ġvaluable": 7543,
      "Ġcameras": 7544,
      "Ġtrib": 7545,
      "ĠMinnesota": 7546,
      "Ġphr": 7547,
      "Ġgranted": 7548,
      "Ġwriters": 7549,
      "EST": 7550,
      "earing": 7551,
      "ĠMu": 7552,
      "Ġreturning": 7553,
      "Ġrecon": 7554,
      "ĠPay": 7555,
      "Ġdepending": 7556,
      "ĠJoseph": 7557,
      "Ġwarming": 7558,
      "2014": 7559,
      "enth": 7560,
      "ĠAli": 7561,
      "Ġfeedback": 7562,
      "Ġenjoyed": 7563,
      "ĠAR": 7564,
      "essed": 7565,
      "everal": 7566,
      "Ġextract": 7567,
      "oen": 7568,
      "Ġcable": 7569,
      "Ġportion": 7570,
      "ima": 7571,
      "Ġhistoric": 7572,
      "ĠSeries": 7573,
      "uper": 7574,
      "Ġmagic": 7575,
      "ĠInt": 7576,
      "ĠHT": 7577,
      "Ġmanufacturing": 7578,
      "Ġseats": 7579,
      "aturally": 7580,
      "idency": 7581,
      "ĠCross": 7582,
      "Ġeverywhere": 7583,
      "Ġadvertising": 7584,
      "ĠSanta": 7585,
      "err": 7586,
      "ules": 7587,
      "thony": 7588,
      "ĠJosh": 7589,
      "Ġdisaster": 7590,
      "Ġmedium": 7591,
      "reams": 7592,
      "ĠProte": 7593,
      "urb": 7594,
      "mented": 7595,
      "ye": 7596,
      "Ġmanip": 7597,
      "ĠInvest": 7598,
      "ibilities": 7599,
      "Ġmainly": 7600,
      "Ġengaged": 7601,
      "imore": 7602,
      "ĠâĢĻ": 7603,
      "Ġcontem": 7604,
      "Ġadvis": 7605,
      "ilton": 7606,
      "Ġplug": 7607,
      "Ġattended": 7608,
      "month": 7609,
      "Ġelite": 7610,
      "Ġassistant": 7611,
      "onsin": 7612,
      "Ġmail": 7613,
      "Ġcolon": 7614,
      "Ġdescribes": 7615,
      "Ġinev": 7616,
      "ĠLGBT": 7617,
      "Ġrating": 7618,
      "icking": 7619,
      "Ġscenes": 7620,
      "Ġthin": 7621,
      "Ġgall": 7622,
      "Ġstations": 7623,
      "Ġmyth": 7624,
      "ĠBusiness": 7625,
      "isconsin": 7626,
      "Ġsufficient": 7627,
      "ĠEastern": 7628,
      "this": 7629,
      "ĠOper": 7630,
      "Ġwalls": 7631,
      "Ġbom": 7632,
      "ĠCome": 7633,
      "Ġapolog": 7634,
      "ĠForeign": 7635,
      "from": 7636,
      "Ġhidden": 7637,
      "ĠNHL": 7638,
      "Ġlawmakers": 7639,
      "isan": 7640,
      "Ġcollected": 7641,
      "ĠFre": 7642,
      "Ġmarked": 7643,
      "Ġlaid": 7644,
      "Ġvacc": 7645,
      "ĠPacific": 7646,
      "fall": 7647,
      "uine": 7648,
      "quarters": 7649,
      "Ġpossession": 7650,
      "Ġteaching": 7651,
      "Ġ($": 7652,
      "Ġads": 7653,
      "Ġ41": 7654,
      "istent": 7655,
      "ĠNBC": 7656,
      "Ġpermanent": 7657,
      "Ġblocks": 7658,
      "Ġexpectations": 7659,
      "Ġanticip": 7660,
      "anchester": 7661,
      "Ġtitles": 7662,
      "Ġreputation": 7663,
      "ĠEmp": 7664,
      "Ġplate": 7665,
      "Ġspr": 7666,
      "ĠNick": 7667,
      "ĠVis": 7668,
      "Ġconscious": 7669,
      "Ġtor": 7670,
      "inking": 7671,
      "Ġbranch": 7672,
      "Ġchampionship": 7673,
      "))": 7674,
      "Ġloud": 7675,
      "ĠNation": 7676,
      "ifies": 7677,
      "Ġprivile": 7678,
      "Ġduty": 7679,
      "Ġaffili": 7680,
      "ĠDevelopment": 7681,
      "ĠVR": 7682,
      "vania": 7683,
      "Mean": 7684,
      "Ġkil": 7685,
      "Ġphotograph": 7686,
      "Ġequivalent": 7687,
      "ĠTake": 7688,
      "Ġwheel": 7689,
      "Ġletters": 7690,
      "Ġemerged": 7691,
      "ĠAD": 7692,
      "icket": 7693,
      "amber": 7694,
      "Ġtroub": 7695,
      "Pr": 7696,
      "Ġfighters": 7697,
      "ĠMars": 7698,
      "Ġsolve": 7699,
      "Ġprinciples": 7700,
      "Ġju": 7701,
      "Ġairport": 7702,
      "Ġoverse": 7703,
      "Ġ65": 7704,
      "Ġexplicit": 7705,
      "log": 7706,
      "viously": 7707,
      "Ġpump": 7708,
      "ĠFC": 7709,
      "Ġstrict": 7710,
      "Ġ1999": 7711,
      "icate": 7712,
      "Inst": 7713,
      "Ġenorm": 7714,
      "Ġdowntown": 7715,
      "PM": 7716,
      "Getty": 7717,
      "Ġhabit": 7718,
      "Ġlawyers": 7719,
      "gorith": 7720,
      "Ġprominent": 7721,
      "Ġfought": 7722,
      "Ġfunny": 7723,
      "Ġdegrees": 7724,
      "\">": 7725,
      "asion": 7726,
      "ems": 7727,
      "ĠRus": 7728,
      "Ġprinciple": 7729,
      "Ġafraid": 7730,
      "Ġveget": 7731,
      "Ġnegotiations": 7732,
      "Ġscores": 7733,
      "Ġintellectual": 7734,
      "Ġresulted": 7735,
      "Ġimplementation": 7736,
      "erm": 7737,
      "Ġbridge": 7738,
      "ĠSenator": 7739,
      "Dav": 7740,
      "ĠIT": 7741,
      "ĠFood": 7742,
      "Ġlights": 7743,
      "Ġfake": 7744,
      "ĠOs": 7745,
      "front": 7746,
      "Ġclubs": 7747,
      "Ġtaxp": 7748,
      "ĠLive": 7749,
      "ĠGlobal": 7750,
      "Ġyield": 7751,
      "ĠKir": 7752,
      "Ġengineering": 7753,
      "abama": 7754,
      "bell": 7755,
      "Ġobst": 7756,
      "Ġcontracts": 7757,
      "Ġpriority": 7758,
      "Ġsup": 7759,
      "ba": 7760,
      "ĠSet": 7761,
      "upid": 7762,
      "Ġgrant": 7763,
      "ython": 7764,
      "rific": 7765,
      "Ġprocesses": 7766,
      "Ġintense": 7767,
      "ĠStill": 7768,
      "ĠMarc": 7769,
      "Ġunusual": 7770,
      "Ġcorporations": 7771,
      "Ġagric": 7772,
      "Ġfirms": 7773,
      "making": 7774,
      "aron": 7775,
      "ogether": 7776,
      "Ġbusy": 7777,
      "ĠPlus": 7778,
      "Me": 7779,
      "Î¹": 7780,
      "ĠNorthern": 7781,
      "Ġfinance": 7782,
      "Ġlosses": 7783,
      "Ġwing": 7784,
      "Ġroot": 7785,
      "thew": 7786,
      "idelines": 7787,
      "syl": 7788,
      "Ġstruggling": 7789,
      "AG": 7790,
      "scape": 7791,
      "ĠJudge": 7792,
      "plete": 7793,
      "Ġestablishment": 7794,
      "ĠMajor": 7795,
      "Ġblind": 7796,
      "Ġborrow": 7797,
      "enny": 7798,
      "gun": 7799,
      "profit": 7800,
      "Ġhired": 7801,
      "Ġdim": 7802,
      "Ġbasketball": 7803,
      "Ġven": 7804,
      "Ġunw": 7805,
      "star": 7806,
      "Ġneuro": 7807,
      "Ġpatterns": 7808,
      "opher": 7809,
      "Ġneutral": 7810,
      "lete": 7811,
      "ĠBattle": 7812,
      "Ġcyber": 7813,
      "Ġ44": 7814,
      "jo": 7815,
      "Ñģ": 7816,
      "chain": 7817,
      "ATE": 7818,
      "ĠField": 7819,
      "ĠBefore": 7820,
      "Ġpounds": 7821,
      "Ġ46": 7822,
      "aed": 7823,
      "Ġsilver": 7824,
      "Ġrarely": 7825,
      "Ġrelief": 7826,
      "Ġdeliber": 7827,
      "Ġinnoc": 7828,
      "ĠKey": 7829,
      "Ġadopted": 7830,
      "orough": 7831,
      "Ġho": 7832,
      "Ġshares": 7833,
      "Ġdozens": 7834,
      "athy": 7835,
      "bal": 7836,
      "Ġwestern": 7837,
      "Ġasks": 7838,
      "prise": 7839,
      "Rec": 7840,
      "serv": 7841,
      "Ġstab": 7842,
      "usive": 7843,
      "Ġroles": 7844,
      "ĠPremier": 7845,
      "ni": 7846,
      "iler": 7847,
      "Ġtechniques": 7848,
      "Ġsurgery": 7849,
      "ĠKingdom": 7850,
      "who": 7851,
      "Ġthick": 7852,
      "Ġrecru": 7853,
      "Ġtackle": 7854,
      "osa": 7855,
      "Ġbanned": 7856,
      "sylvania": 7857,
      "uce": 7858,
      "Ġfault": 7859,
      "Ġbehalf": 7860,
      "ĠiOS": 7861,
      "Ġwebsites": 7862,
      "Ġsaved": 7863,
      "Ġparticipate": 7864,
      "Ġtag": 7865,
      "Ġ400": 7866,
      "riers": 7867,
      "ĠRay": 7868,
      "ĠSP": 7869,
      "ĠNavy": 7870,
      "Ġshortly": 7871,
      "ĠOak": 7872,
      "hy": 7873,
      "Ġstable": 7874,
      "Ġbrut": 7875,
      "Ġcited": 7876,
      "Ġacademic": 7877,
      "Ġrecip": 7878,
      "Ġ43": 7879,
      "Ġacceler": 7880,
      "Ġcreates": 7881,
      "ĠCentre": 7882,
      "Ġepisodes": 7883,
      "Ġedition": 7884,
      "ĠConference": 7885,
      "Us": 7886,
      "Ġextension": 7887,
      "ilipp": 7888,
      "Ġuncom": 7889,
      "Ġfeelings": 7890,
      "Meanwhile": 7891,
      "Ġinitiative": 7892,
      "87": 7893,
      "Ġ47": 7894,
      "Ġmenu": 7895,
      "ĠIowa": 7896,
      "ĠMid": 7897,
      "Ġentering": 7898,
      "Ġreviews": 7899,
      "ĠAcademy": 7900,
      "oured": 7901,
      "ĠSat": 7902,
      "ĠHit": 7903,
      "Ġuncertain": 7904,
      "ĠHenry": 7905,
      "Ġfee": 7906,
      "olis": 7907,
      "Ġinterface": 7908,
      "Ġrely": 7909,
      "Ġgained": 7910,
      "rently": 7911,
      "Ġelectronic": 7912,
      "inf": 7913,
      "Ġsensitive": 7914,
      "Ġmel": 7915,
      "ĠMoscow": 7916,
      "away": 7917,
      "ĠTony": 7918,
      "Ġscenario": 7919,
      "arlier": 7920,
      "ĠCall": 7921,
      "world": 7922,
      "ĠNote": 7923,
      "Ġachieved": 7924,
      "olt": 7925,
      "ĠKelly": 7926,
      "ultural": 7927,
      "ĠTenn": 7928,
      "ĠAvenue": 7929,
      "ĠRoyal": 7930,
      "Star": 7931,
      "Ġgenuine": 7932,
      "iel": 7933,
      "Ġformal": 7934,
      "Ġvisible": 7935,
      "orne": 7936,
      "Ġincent": 7937,
      "EP": 7938,
      "Ġdict": 7939,
      "Ġridic": 7940,
      "Ġshock": 7941,
      "Ġcha": 7942,
      "Ġax": 7943,
      "ikes": 7944,
      "Ġexception": 7945,
      "Ġinterviews": 7946,
      "ĠBry": 7947,
      "Ġdoors": 7948,
      "Who": 7949,
      "Ġcup": 7950,
      "Ġdiscipl": 7951,
      "Ġdinner": 7952,
      "ĠPot": 7953,
      "ĠOl": 7954,
      "ogen": 7955,
      "Ġhadn": 7956,
      "portion": 7957,
      "ĠSeason": 7958,
      "Ġheaded": 7959,
      "Ġjournalist": 7960,
      "ĠAtlanta": 7961,
      "ĠWisconsin": 7962,
      "Ġexem": 7963,
      "Ġflaw": 7964,
      "dr": 7965,
      "mal": 7966,
      "Ġphilosophy": 7967,
      "Ġthousand": 7968,
      "ĠAS": 7969,
      "ca": 7970,
      "Ġ55": 7971,
      "ira": 7972,
      "osexual": 7973,
      "achus": 7974,
      "Ġiron": 7975,
      "uer": 7976,
      "ĠOnt": 7977,
      "mann": 7978,
      "Ġproducing": 7979,
      "RC": 7980,
      "Ġfarmers": 7981,
      "etime": 7982,
      ".-": 7983,
      "Ġtoler": 7984,
      "Ġhole": 7985,
      "Ġinvent": 7986,
      "ĠLittle": 7987,
      "Ġsharp": 7988,
      "Ġrecognized": 7989,
      "ĠPerhaps": 7990,
      "athered": 7991,
      "rik": 7992,
      "Ġlegend": 7993,
      "etts": 7994,
      "Ġsmoke": 7995,
      "Ġbegun": 7996,
      "Ġexclusive": 7997,
      "car": 7998,
      "ĠWW": 7999,
      "ĠDig": 8000,
      "Ġcounsel": 8001,
      "izon": 8002,
      "abinet": 8003,
      "elect": 8004,
      "ĠHarry": 8005,
      "https": 8006,
      "RI": 8007,
      "Ġreaching": 8008,
      "Ġpermission": 8009,
      "Ġstadium": 8010,
      "Ġcontaining": 8011,
      "ĠMean": 8012,
      "Ġpropag": 8013,
      "Ġindicate": 8014,
      "Ġprogressive": 8015,
      "ĠMoh": 8016,
      "Ġbacked": 8017,
      "Ġsmooth": 8018,
      "Ġpractical": 8019,
      "Ġsettings": 8020,
      "yo": 8021,
      "Ġpref": 8022,
      "ĠPent": 8023,
      "President": 8024,
      "page": 8025,
      "Ġdefence": 8026,
      "Ġutil": 8027,
      "Ġhook": 8028,
      "ĠReport": 8029,
      "igen": 8030,
      "Ġproven": 8031,
      "umer": 8032,
      "Ġelig": 8033,
      "weet": 8034,
      "ĠAmendment": 8035,
      "Ġreduction": 8036,
      "ĠMcCain": 8037,
      "pread": 8038,
      "pload": 8039,
      "Ġspark": 8040,
      "Ġlistening": 8041,
      "Ġbra": 8042,
      "mate": 8043,
      "ĠThus": 8044,
      "dit": 8045,
      "ĠMarket": 8046,
      "'.": 8047,
      "Ġrecognition": 8048,
      "Look": 8049,
      "ĠPennsylvania": 8050,
      "UN": 8051,
      "ĠAlabama": 8052,
      "ĠAbout": 8053,
      "ĠTurkish": 8054,
      "ĠEducation": 8055,
      "Ð½": 8056,
      "Ġfounded": 8057,
      "400": 8058,
      "85": 8059,
      "Ġbehaviour": 8060,
      "abs": 8061,
      "osit": 8062,
      "Ġdiversity": 8063,
      "ĠGreg": 8064,
      "Ġconvin": 8065,
      "ĠGuardian": 8066,
      "heast": 8067,
      "idespread": 8068,
      "Ġsanctions": 8069,
      "Ġwages": 8070,
      "ione": 8071,
      "ĠFurther": 8072,
      "Ġtrained": 8073,
      "roduct": 8074,
      "Ġfootage": 8075,
      "ĠAdministration": 8076,
      "found": 8077,
      "Before": 8078,
      "ĠDivision": 8079,
      "Ġtox": 8080,
      "Ġunex": 8081,
      "Ġloans": 8082,
      "Ġfriendly": 8083,
      "ĠGreek": 8084,
      "Ġnominee": 8085,
      "then": 8086,
      "acon": 8087,
      "ĠFund": 8088,
      "Ġbeliefs": 8089,
      "ĠLuc": 8090,
      "ĠStat": 8091,
      "agger": 8092,
      "burgh": 8093,
      "Ġconspiracy": 8094,
      "olen": 8095,
      "ologists": 8096,
      "72": 8097,
      "Ġfiscal": 8098,
      "ĠCirc": 8099,
      "ĠRick": 8100,
      "Ġprofession": 8101,
      "Ġdistr": 8102,
      "Ġgift": 8103,
      "ĠHay": 8104,
      "Ġdescription": 8105,
      "ĠABC": 8106,
      "Ġsalary": 8107,
      "ĠAk": 8108,
      "ĠJac": 8109,
      "ecut": 8110,
      "ĠMusic": 8111,
      "ĠBaltimore": 8112,
      "achusetts": 8113,
      "Ġcomponent": 8114,
      "Ġactors": 8115,
      "Ġchallenging": 8116,
      "Ġhang": 8117,
      "Ġthrown": 8118,
      "Ġindicated": 8119,
      "Ġwine": 8120,
      "ĠManchester": 8121,
      "ĠThree": 8122,
      "appy": 8123,
      "interest": 8124,
      "Ġburd": 8125,
      "ĠMayor": 8126,
      "Mc": 8127,
      "ĠHo": 8128,
      "ordon": 8129,
      "Ġrose": 8130,
      "ĠRet": 8131,
      "eland": 8132,
      "199": 8133,
      "Ġethnic": 8134,
      "Ġsettlement": 8135,
      "ĠRand": 8136,
      "ĠFred": 8137,
      "ĠHead": 8138,
      "mad": 8139,
      "Ġwelf": 8140,
      "oding": 8141,
      "oval": 8142,
      "Those": 8143,
      "Ġrespectively": 8144,
      "Ġraces": 8145,
      "Ġprocessing": 8146,
      "Ġbath": 8147,
      "Ġpersonality": 8148,
      "Ġbarely": 8149,
      "Ġcrop": 8150,
      "ĠMinistry": 8151,
      "Ġrear": 8152,
      "aying": 8153,
      "Ġfrag": 8154,
      "engers": 8155,
      "ĠIII": 8156,
      "Ġfiction": 8157,
      "ĠKansas": 8158,
      "ĠSquare": 8159,
      "ĠBrew": 8160,
      "Ġinject": 8161,
      "Ġfeaturing": 8162,
      "Ġliked": 8163,
      "ÑĢ": 8164,
      "umes": 8165,
      "Ġcontained": 8166,
      "Ġhitting": 8167,
      "Ġdrawing": 8168,
      "Ġminority": 8169,
      "Ġhide": 8170,
      "Ġalgorith": 8171,
      "Ġgam": 8172,
      "ĠMake": 8173,
      "ĠJason": 8174,
      "ĠRadio": 8175,
      "Ġtail": 8176,
      "udes": 8177,
      "Ġdispl": 8178,
      "Ġmovements": 8179,
      "Ġownership": 8180,
      "LC": 8181,
      "Ġanger": 8182,
      "Ġships": 8183,
      "Ġroof": 8184,
      "Ġcarefully": 8185,
      "Ġwelfare": 8186,
      "ĠDNA": 8187,
      "Ġalien": 8188,
      "Ġstructures": 8189,
      "Ġdevast": 8190,
      "Ġlanguages": 8191,
      "gener": 8192,
      "ĠAND": 8193,
      "Ġuniform": 8194,
      "Ġrecover": 8195,
      "lessly": 8196,
      "ĠReuters": 8197,
      "Ġnormally": 8198,
      "ulating": 8199,
      "Ġsuggesting": 8200,
      "Ġconnections": 8201,
      "Ġrepresentative": 8202,
      "ðŁ": 8203,
      "Ġvary": 8204,
      "Ġ->": 8205,
      "Ġdelivery": 8206,
      "Ġperpet": 8207,
      "Ġcannabis": 8208,
      "Ġscoring": 8209,
      "Ġforever": 8210,
      "inois": 8211,
      "Ġwonderful": 8212,
      "Ġupset": 8213,
      "Ġmilk": 8214,
      "Ġfailing": 8215,
      "Ġdestruction": 8216,
      "Ġdeeper": 8217,
      "ras": 8218,
      "Ġfinger": 8219,
      "ĠEs": 8220,
      "Ġhardly": 8221,
      "ĠAllen": 8222,
      "Ġtemporary": 8223,
      "Ġwithdraw": 8224,
      "Ġham": 8225,
      "Ġexternal": 8226,
      "ĠDiego": 8227,
      "ĠFoot": 8228,
      "ĠMcG": 8229,
      "ĠLo": 8230,
      "Ġloyal": 8231,
      "ĠCO": 8232,
      "Ġindependence": 8233,
      "ami": 8234,
      "phones": 8235,
      "Sub": 8236,
      "ĠSir": 8237,
      "ĠNext": 8238,
      "Ġretired": 8239,
      "Ġconvicted": 8240,
      "ĠAnton": 8241,
      "unior": 8242,
      "ped": 8243,
      "ĠLow": 8244,
      "isp": 8245,
      "Ġfoundation": 8246,
      "Ġimprovements": 8247,
      "Ġrestrictions": 8248,
      "ĠHistory": 8249,
      "uties": 8250,
      "Ġflash": 8251,
      "Ġcontribute": 8252,
      "aching": 8253,
      "Ġgenetic": 8254,
      "eman": 8255,
      "ĠReview": 8256,
      "Ġheading": 8257,
      "Ġcomprehens": 8258,
      "Ref": 8259,
      "Ġvital": 8260,
      "Ġproducer": 8261,
      "ĠArm": 8262,
      "Ġ1996": 8263,
      "Ġinvestigate": 8264,
      "Ġranked": 8265,
      "rical": 8266,
      "Ġ1998": 8267,
      "bn": 8268,
      "lad": 8269,
      "Ġremem": 8270,
      "Ġdiscrimination": 8271,
      "Ġcomplaints": 8272,
      "Ġupgrade": 8273,
      "Ġnoise": 8274,
      "Ġviewers": 8275,
      "ĠCheck": 8276,
      "itionally": 8277,
      "core": 8278,
      "Ġsoph": 8279,
      "obs": 8280,
      "Ġequally": 8281,
      "76": 8282,
      "onic": 8283,
      "angel": 8284,
      "Ġconvinced": 8285,
      "Script": 8286,
      "Ġaver": 8287,
      "ĠAnthony": 8288,
      "Ġlayer": 8289,
      "Ġtickets": 8290,
      "Ġarrange": 8291,
      "ĠIce": 8292,
      "%,": 8293,
      "Ġlicens": 8294,
      "Ġrapidly": 8295,
      "Ġtrigger": 8296,
      "owing": 8297,
      "ĠAF": 8298,
      "ifest": 8299,
      "Ġsin": 8300,
      "Ġstone": 8301,
      "ĠStart": 8302,
      "Ġvirus": 8303,
      "Ġgrounds": 8304,
      "Ġsynt": 8305,
      "ĠLy": 8306,
      "Ġmo": 8307,
      "ĠRef": 8308,
      "ĠESP": 8309,
      "rous": 8310,
      "Ġeuro": 8311,
      "Ġexceed": 8312,
      "Ġbail": 8313,
      "Ġ1960": 8314,
      "Ġtouchdown": 8315,
      "power": 8316,
      "Ġtip": 8317,
      "Ġgonna": 8318,
      "ources": 8319,
      "Ġrook": 8320,
      "ounced": 8321,
      "amsung": 8322,
      "Ġminds": 8323,
      "Ġunemployment": 8324,
      "esh": 8325,
      "ĠBernie": 8326,
      "Ġtheat": 8327,
      "abeth": 8328,
      "ĠNever": 8329,
      "::": 8330,
      "Ġdeputy": 8331,
      "Ġrobot": 8332,
      "Î½": 8333,
      "ection": 8334,
      "Ġversus": 8335,
      "ĠBroad": 8336,
      "Ġcitizen": 8337,
      "Ġanybody": 8338,
      "Ġsorry": 8339,
      "Ġsteal": 8340,
      "lah": 8341,
      "nedy": 8342,
      "Ġwww": 8343,
      "Ġwidespread": 8344,
      "Ġsuffer": 8345,
      "anna": 8346,
      "Will": 8347,
      "Ġgear": 8348,
      "Ġprofits": 8349,
      "bi": 8350,
      "Ġlists": 8351,
      "Ġaccus": 8352,
      "ĠVegas": 8353,
      "Sm": 8354,
      "Ġnotion": 8355,
      "rolled": 8356,
      "Ġillness": 8357,
      "ĠGolden": 8358,
      "test": 8359,
      "HAHAHAHA": 8360,
      "Ġcogn": 8361,
      "omething": 8362,
      "Ġreducing": 8363,
      "Ġultimate": 8364,
      "div": 8365,
      "ĠExt": 8366,
      "UL": 8367,
      "Ġpeak": 8368,
      "Ġsymptoms": 8369,
      "ĠRen": 8370,
      "azz": 8371,
      "ĠControl": 8372,
      "Ġtrem": 8373,
      "BO": 8374,
      "Ġhandful": 8375,
      "Ġocean": 8376,
      "alling": 8377,
      "ĠXbox": 8378,
      "low": 8379,
      "Ġsugar": 8380,
      "Ġresource": 8381,
      "Ġstatistics": 8382,
      "ĠAp": 8383,
      "Ġunclear": 8384,
      "ouver": 8385,
      "worth": 8386,
      "iry": 8387,
      "Ġpurchased": 8388,
      "PG": 8389,
      "lan": 8390,
      "Ġviewed": 8391,
      "Ġaddressed": 8392,
      "News": 8393,
      "Ġprosec": 8394,
      "Ġlegitimate": 8395,
      "Back": 8396,
      "han": 8397,
      "Ġscreens": 8398,
      "Ġincorpor": 8399,
      "Ġscholars": 8400,
      "RS": 8401,
      "case": 8402,
      "ĠCode": 8403,
      "Ġtransgender": 8404,
      "rient": 8405,
      "Ġassociation": 8406,
      "ĠMassachusetts": 8407,
      "esy": 8408,
      "Ġignore": 8409,
      "ĠPack": 8410,
      "esty": 8411,
      "ommod": 8412,
      "Ġawareness": 8413,
      "ĠCommunity": 8414,
      "ĠTown": 8415,
      "Ġgrass": 8416,
      "Ġcollapse": 8417,
      "Ġfantasy": 8418,
      "Ġovert": 8419,
      "yer": 8420,
      "ĠMir": 8421,
      "ĠKat": 8422,
      "Ġseemingly": 8423,
      "Ġplatforms": 8424,
      "Ġguarante": 8425,
      "Ġouts": 8426,
      "Ġbub": 8427,
      "ĠTro": 8428,
      "aka": 8429,
      "Note": 8430,
      "Ġinvolvement": 8431,
      "Ġdance": 8432,
      "ĠRose": 8433,
      "Ġserves": 8434,
      "Ġracist": 8435,
      "ĠArabia": 8436,
      "ho": 8437,
      "ĠAle": 8438,
      "ĠHard": 8439,
      "Ġaffairs": 8440,
      "Ġstrategic": 8441,
      "Ġestimate": 8442,
      "Ġreferring": 8443,
      "Ġoverwhelming": 8444,
      "rine": 8445,
      "ĠUlt": 8446,
      "auc": 8447,
      "Under": 8448,
      "ĠCook": 8449,
      "Ġcasual": 8450,
      "Ġrevel": 8451,
      "Ġbrill": 8452,
      "Ġcaptain": 8453,
      "ĠMedical": 8454,
      "ĠLatin": 8455,
      "Ġingred": 8456,
      "ĠRoss": 8457,
      "Ġdefine": 8458,
      "scale": 8459,
      "ĠPoint": 8460,
      "Ġimplemented": 8461,
      "Ġtasks": 8462,
      "Ġfab": 8463,
      "ĠAC": 8464,
      "Ġcivilians": 8465,
      "ĠOK": 8466,
      "Ġoffices": 8467,
      "ĠFair": 8468,
      "Ġcareful": 8469,
      "Ġdiscussions": 8470,
      "Ġterrorists": 8471,
      "ĠâĤ¬": 8472,
      "Ġlobby": 8473,
      "Ġjoining": 8474,
      "ĠNob": 8475,
      "ĠAnderson": 8476,
      "ĠSept": 8477,
      "Ġfallen": 8478,
      "Ġprepare": 8479,
      "arrass": 8480,
      "bec": 8481,
      "Ġtechnique": 8482,
      "Ġentertainment": 8483,
      "ĠDid": 8484,
      "including": 8485,
      "Ġattacking": 8486,
      "ĠFamily": 8487,
      "Ġscandal": 8488,
      "iversary": 8489,
      "ancouver": 8490,
      "cific": 8491,
      "Ġluck": 8492,
      "ĠMuseum": 8493,
      "Ġinteract": 8494,
      "ATO": 8495,
      "Ġtransportation": 8496,
      "ĠHor": 8497,
      "Ġjur": 8498,
      "Ġclosing": 8499,
      "Ġgains": 8500,
      "ĠPhilipp": 8501,
      "Ġauthent": 8502,
      "Ġattempting": 8503,
      "asty": 8504,
      "EF": 8505,
      "umin": 8506,
      "SL": 8507,
      "Ġchapter": 8508,
      "dem": 8509,
      "Ġgathered": 8510,
      "Ġenormous": 8511,
      "800": 8512,
      "Ġintervention": 8513,
      "Ġrecommended": 8514,
      "otype": 8515,
      "Ġmountain": 8516,
      "ĠGov": 8517,
      "Ġlets": 8518,
      "hour": 8519,
      "Ġfears": 8520,
      "Ġarray": 8521,
      "Ġadvocates": 8522,
      "ĠNC": 8523,
      "rypt": 8524,
      "Ġinvited": 8525,
      "Ġinvolves": 8526,
      "ĠAlbert": 8527,
      "haust": 8528,
      "TR": 8529,
      "ĠMah": 8530,
      "@@": 8531,
      "ctic": 8532,
      "ĠRa": 8533,
      "Ġexpanded": 8534,
      "Ġdisrupt": 8535,
      "claim": 8536,
      "ĠUFC": 8537,
      "Ġimprovement": 8538,
      "ifer": 8539,
      "83": 8540,
      "Ġï": 8541,
      "Ġbacter": 8542,
      "ĠPatrick": 8543,
      "Ġren": 8544,
      "Ġextend": 8545,
      "Ġfactory": 8546,
      "Ġsuspected": 8547,
      "Ġholiday": 8548,
      "ĠUse": 8549,
      "Ġconstitutional": 8550,
      "ĠAI": 8551,
      "cription": 8552,
      "Ġphotograp": 8553,
      "Ġvirtually": 8554,
      "leveland": 8555,
      "Ġsubjects": 8556,
      "Ġcollective": 8557,
      "Ġopinions": 8558,
      "ĠEmpire": 8559,
      "Ġbrothers": 8560,
      "ogs": 8561,
      "Ġclock": 8562,
      "ĠSaf": 8563,
      "Ġlogic": 8564,
      "ĠJay": 8565,
      "Ġcampaigns": 8566,
      "Ġmistakes": 8567,
      "Ġinflation": 8568,
      "Ġframework": 8569,
      "About": 8570,
      "Ġdisagree": 8571,
      "ported": 8572,
      "Ġdramatic": 8573,
      "Ġneck": 8574,
      "ĠBeach": 8575,
      "ĠAPI": 8576,
      "ĠIllinois": 8577,
      "ivals": 8578,
      "ĠRevolution": 8579,
      "Ġregulation": 8580,
      "ĠChristians": 8581,
      "ĠColumbia": 8582,
      "Ġstupid": 8583,
      "ĠNic": 8584,
      "Ġhanded": 8585,
      "ĠShare": 8586,
      "Ġpresum": 8587,
      "Ġproviders": 8588,
      "Ġattached": 8589,
      "Ġmusical": 8590,
      "Ġconsistently": 8591,
      "Ġcontroversy": 8592,
      "âĺ": 8593,
      "leep": 8594,
      "Ġamid": 8595,
      "Ġ2019": 8596,
      "Ġhorror": 8597,
      "Where": 8598,
      "lando": 8599,
      "\".[": 8600,
      "rets": 8601,
      "repre": 8602,
      "eters": 8603,
      "Ġdivided": 8604,
      "Post": 8605,
      "ĠNintendo": 8606,
      "ropri": 8607,
      "ihad": 8608,
      "rapped": 8609,
      "Ġbars": 8610,
      "ila": 8611,
      "Ġthrowing": 8612,
      "Ġwars": 8613,
      "ĠPass": 8614,
      "izabeth": 8615,
      "Ġcolors": 8616,
      "Please": 8617,
      "rec": 8618,
      "ĠChair": 8619,
      "Ġraw": 8620,
      "2017": 8621,
      "PC": 8622,
      "yard": 8623,
      "asted": 8624,
      "Ġpublication": 8625,
      "Ġcro": 8626,
      "Ġfed": 8627,
      "ĠLyn": 8628,
      "Ġmonitor": 8629,
      "Ass": 8630,
      "tel": 8631,
      "Ġabsence": 8632,
      "ĠNOT": 8633,
      "Ġconsole": 8634,
      "Ġdynamic": 8635,
      "dri": 8636,
      "Ġtwenty": 8637,
      "Ġhypot": 8638,
      "!)": 8639,
      "arms": 8640,
      "ĠBad": 8641,
      "Ġreven": 8642,
      "ĠMaster": 8643,
      "osm": 8644,
      "Ġlegs": 8645,
      "Che": 8646,
      "Ġcoaches": 8647,
      "reprene": 8648,
      "ĠMarsh": 8649,
      "ĠBang": 8650,
      "Ġarchitecture": 8651,
      "Ġeastern": 8652,
      "ĠiP": 8653,
      "dated": 8654,
      "Ġpapers": 8655,
      "Ġsoil": 8656,
      "Ġspaces": 8657,
      "html": 8658,
      "Both": 8659,
      "only": 8660,
      "Ġsubstantial": 8661,
      "ja": 8662,
      "Ġtea": 8663,
      "Ġ_": 8664,
      "Ġmathem": 8665,
      "Ġinnovation": 8666,
      "ĠLind": 8667,
      "ĠIndiana": 8668,
      "oenix": 8669,
      "Ġgal": 8670,
      "Ġreader": 8671,
      "Ġstake": 8672,
      "ptions": 8673,
      "Ġguest": 8674,
      "Ġhandling": 8675,
      "Ġhorse": 8676,
      "eries": 8677,
      "Ġabst": 8678,
      "Ġdrew": 8679,
      "Ġfulf": 8680,
      "icity": 8681,
      "uted": 8682,
      "backs": 8683,
      "61": 8684,
      "Ġyellow": 8685,
      "atern": 8686,
      "ĠEngine": 8687,
      "ĠKong": 8688,
      "Ġfalls": 8689,
      "ĠConservative": 8690,
      "74": 8691,
      "mary": 8692,
      "Ġstayed": 8693,
      "isting": 8694,
      "Ġbuff": 8695,
      "Ġroads": 8696,
      "Part": 8697,
      "ĠCBS": 8698,
      "Ġaccommod": 8699,
      "Ġcopies": 8700,
      "ĠMatthew": 8701,
      "Ġappreciate": 8702,
      "imm": 8703,
      "Ġcovers": 8704,
      "Ġregister": 8705,
      "Ġjury": 8706,
      "Ġattitude": 8707,
      "Ġvisitors": 8708,
      "Ġprincip": 8709,
      "ĠIndepend": 8710,
      "itting": 8711,
      "ixed": 8712,
      "Ġencouraged": 8713,
      "Ġactivist": 8714,
      "Ġtomorrow": 8715,
      "sels": 8716,
      "Ġparalle": 8717,
      "ndum": 8718,
      "Ġcounts": 8719,
      "Ġusage": 8720,
      "fr": 8721,
      "aning": 8722,
      "ĠMarx": 8723,
      "aver": 8724,
      "ĠKennedy": 8725,
      "ĠSpring": 8726,
      "ĠNSA": 8727,
      "quest": 8728,
      "comes": 8729,
      "Ġtap": 8730,
      "Ġdiscovery": 8731,
      "Ġdepends": 8732,
      "Ġspeaks": 8733,
      "Ġstages": 8734,
      "inction": 8735,
      "Ġdepression": 8736,
      "ĠRoberts": 8737,
      "Ġinvestigating": 8738,
      "atar": 8739,
      "eding": 8740,
      "ouch": 8741,
      "Ġsamples": 8742,
      "Related": 8743,
      "ĠESPN": 8744,
      "Cons": 8745,
      "hot": 8746,
      "Ġcoc": 8747,
      "ĠAst": 8748,
      "unes": 8749,
      "ĠGun": 8750,
      "2015": 8751,
      "cover": 8752,
      "Ġstolen": 8753,
      "Ġnoting": 8754,
      "iley": 8755,
      "ĠIndeed": 8756,
      "Ġfruit": 8757,
      "Ġclothes": 8758,
      "Sen": 8759,
      "Ġdrone": 8760,
      "ĠSuch": 8761,
      "pat": 8762,
      "ammed": 8763,
      "Ġ51": 8764,
      "Ġtries": 8765,
      "David": 8766,
      "ĠHind": 8767,
      "uits": 8768,
      "âĸ": 8769,
      "Ġmad": 8770,
      "Ġhint": 8771,
      "Ġpromises": 8772,
      "iability": 8773,
      "Ġincidents": 8774,
      "ĠStadium": 8775,
      "high": 8776,
      "ĠAction": 8777,
      "orge": 8778,
      "ĠSony": 8779,
      "Ġconversations": 8780,
      "Ġproposals": 8781,
      "wered": 8782,
      "Ġcust": 8783,
      "Ġbureau": 8784,
      "ĠDet": 8785,
      "Ġshoulder": 8786,
      "SC": 8787,
      "ĠBall": 8788,
      "ĠHD": 8789,
      "ĠInformation": 8790,
      "ĠUnfortunately": 8791,
      "ĠProfessor": 8792,
      "Ġ!": 8793,
      "ĠTed": 8794,
      "Ġconce": 8795,
      "Ġperforming": 8796,
      "Ġlucky": 8797,
      "ĠPrice": 8798,
      "ĠDenver": 8799,
      "62": 8800,
      "Ġunc": 8801,
      "Ġmidfield": 8802,
      "Ġguarantee": 8803,
      "Ġsaving": 8804,
      "Ġresign": 8805,
      "Ġremarks": 8806,
      "Ġentr": 8807,
      "Ġappointed": 8808,
      "ĠPo": 8809,
      "ĠEnvironment": 8810,
      "ijing": 8811,
      "ĠGulf": 8812,
      "ĠJet": 8813,
      "71": 8814,
      "Ġdemonstrated": 8815,
      "ĠWalker": 8816,
      "ĠCameron": 8817,
      "Ġentitled": 8818,
      "iece": 8819,
      "Ġovers": 8820,
      "Ġtemperatures": 8821,
      "Ġmarch": 8822,
      "Ġlands": 8823,
      "Ġmining": 8824,
      "Ġratings": 8825,
      "Ġfantastic": 8826,
      "olar": 8827,
      "break": 8828,
      "reate": 8829,
      "Ġunions": 8830,
      "ĠStone": 8831,
      "Îµ": 8832,
      "iti": 8833,
      "Ġlowest": 8834,
      "Ġimproving": 8835,
      "ĠBrother": 8836,
      "Ġreads": 8837,
      "73": 8838,
      "hop": 8839,
      "Ġ(âĢľ": 8840,
      "Ġreceiver": 8841,
      "Ġembarrass": 8842,
      "Ġliquid": 8843,
      "Ġpin": 8844,
      "ĠAdv": 8845,
      "Ġrequested": 8846,
      "Ġtone": 8847,
      "ĠGaza": 8848,
      "Ġarrive": 8849,
      "ĠCleveland": 8850,
      "ĠHospital": 8851,
      "Ġhumanity": 8852,
      "Ġsurvival": 8853,
      "ĠBerlin": 8854,
      "Ġreplacement": 8855,
      "Ġmortg": 8856,
      "Ġmedicine": 8857,
      "Ġauto": 8858,
      "ĠAcc": 8859,
      "Ġcomedy": 8860,
      "Ġ1995": 8861,
      "Ġabandoned": 8862,
      "Ġmonitoring": 8863,
      "ĠRoy": 8864,
      "Ġcontributions": 8865,
      "Ġacquired": 8866,
      "Ġmuseum": 8867,
      "aware": 8868,
      "Ġtestim": 8869,
      "Ġtransactions": 8870,
      "ĠFull": 8871,
      "ĠFreedom": 8872,
      "Ġprovin": 8873,
      "ĠPit": 8874,
      "maker": 8875,
      "vernment": 8876,
      "Ġpassengers": 8877,
      "Ġbrown": 8878,
      "ĠHarris": 8879,
      "Ġsuspended": 8880,
      "********": 8881,
      "Ġfoss": 8882,
      "Ġefficiency": 8883,
      "Ġspiritual": 8884,
      "Ġnaturally": 8885,
      "Ġranks": 8886,
      "flix": 8887,
      "ĠOntario": 8888,
      "Ġlocked": 8889,
      "Ġboat": 8890,
      "iences": 8891,
      "Ġprisoners": 8892,
      "63": 8893,
      "Ġpoison": 8894,
      "ĠLas": 8895,
      "Russ": 8896,
      "ppers": 8897,
      "ika": 8898,
      "Ġnomination": 8899,
      "Ġ52": 8900,
      "Ġdistributed": 8901,
      "rimin": 8902,
      "ĠOR": 8903,
      "Ġacknowledged": 8904,
      "fund": 8905,
      "aret": 8906,
      "arre": 8907,
      "Ġdemocratic": 8908,
      "shire": 8909,
      "\")": 8910,
      "EE": 8911,
      "Ġchecks": 8912,
      "mat": 8913,
      "erd": 8914,
      "ĠCro": 8915,
      "Ġjoy": 8916,
      "Ġprompt": 8917,
      "helsea": 8918,
      "usalem": 8919,
      "iy": 8920,
      "ĠBudd": 8921,
      "lahoma": 8922,
      "ntil": 8923,
      "Ġdeficit": 8924,
      "ieties": 8925,
      "ĠAssociated": 8926,
      "ĠYemen": 8927,
      "Ġtweeted": 8928,
      "GO": 8929,
      "ersion": 8930,
      "ĠON": 8931,
      "Ġhelpful": 8932,
      "Ġballot": 8933,
      "Ġthrew": 8934,
      "acco": 8935,
      "Ġrural": 8936,
      "Ġvoter": 8937,
      "Ġbarrel": 8938,
      "Ġplain": 8939,
      "Ġcance": 8940,
      "Ġpreced": 8941,
      "Ġpoly": 8942,
      "Your": 8943,
      "Ġ01": 8944,
      "ĠFront": 8945,
      "Ġsteel": 8946,
      "ĠTour": 8947,
      "ĠQueen": 8948,
      "Ġaccomplish": 8949,
      "Ġinner": 8950,
      "Ġshout": 8951,
      "ĠHoward": 8952,
      "Ġforest": 8953,
      "aval": 8954,
      "Ġvisiting": 8955,
      "Ġcapabilities": 8956,
      "roduction": 8957,
      "Ġrescue": 8958,
      "Ġwrest": 8959,
      "Ġdump": 8960,
      "olph": 8961,
      "Ġtorture": 8962,
      "Ġsupplies": 8963,
      "AY": 8964,
      "ĠPerson": 8965,
      "iano": 8966,
      "ĠWhich": 8967,
      "pled": 8968,
      "Ġconservatives": 8969,
      "zed": 8970,
      "Ġmarks": 8971,
      "ĠGirl": 8972,
      "bridge": 8973,
      "Ġrooms": 8974,
      "Ġintroduction": 8975,
      "ĠTechnology": 8976,
      "made": 8977,
      "Ġspoken": 8978,
      "Ġmonthly": 8979,
      "ĠConnect": 8980,
      "PP": 8981,
      "Ġporn": 8982,
      "ĠLink": 8983,
      "ordinary": 8984,
      "ĠIndust": 8985,
      "ĠDesign": 8986,
      "Comp": 8987,
      "har": 8988,
      "plate": 8989,
      "Ġweekly": 8990,
      "Ġpopularity": 8991,
      "des": 8992,
      "ĠCore": 8993,
      "ĠCost": 8994,
      "ĠBureau": 8995,
      "ĠPage": 8996,
      "Ġcompe": 8997,
      "Ġdialogue": 8998,
      "Ġ1997": 8999,
      "Ġastron": 9000,
      "Ġrhet": 9001,
      "assador": 9002,
      "Hz": 9003,
      "Ġfunded": 9004,
      "Ġexhaust": 9005,
      "ĠLes": 9006,
      "Ð¾Ð": 9007,
      "Ġresponses": 9008,
      "Ġcommonly": 9009,
      "Ġshopping": 9010,
      "Ġsymp": 9011,
      "they": 9012,
      "Ġbreaks": 9013,
      "Ġhomeless": 9014,
      "Int": 9015,
      "erted": 9016,
      "ĠGreece": 9017,
      "Ġuniversal": 9018,
      "Ġpetition": 9019,
      "HT": 9020,
      "Sim": 9021,
      "Ġassessment": 9022,
      "ĠTri": 9023,
      "ounce": 9024,
      "via": 9025,
      "itage": 9026,
      "Ġignored": 9027,
      "ĠGalaxy": 9028,
      "Ġskept": 9029,
      "ĠSweden": 9030,
      "Ġreferendum": 9031,
      "zing": 9032,
      "ĠVancouver": 9033,
      "Ġconsent": 9034,
      "Ġpartnership": 9035,
      "Ġmanagers": 9036,
      "Ġacid": 9037,
      "Ġappearances": 9038,
      "Ġjoke": 9039,
      "Ġcovering": 9040,
      "Ġje": 9041,
      "Ġpermit": 9042,
      "Ġ53": 9043,
      "Art": 9044,
      "ĠMess": 9045,
      "ultane": 9046,
      "Ġrender": 9047,
      "ĠNev": 9048,
      "Ġkeys": 9049,
      "ĠHop": 9050,
      "Ġ?": 9051,
      "Ġmaps": 9052,
      "Ġspokesperson": 9053,
      "vard": 9054,
      "amps": 9055,
      "Ġgrid": 9056,
      "ĠGT": 9057,
      "Ġkm": 9058,
      "king": 9059,
      "Ġconcrete": 9060,
      "ecutive": 9061,
      "argo": 9062,
      "Ġbab": 9063,
      "ĠBud": 9064,
      "Ġtrave": 9065,
      "Ġletting": 9066,
      "Ġexit": 9067,
      "Ġguitar": 9068,
      "Ġchildhood": 9069,
      "Ġdiverse": 9070,
      "Ġsty": 9071,
      "iate": 9072,
      "ĠUtah": 9073,
      "door": 9074,
      "isons": 9075,
      "Ġrocket": 9076,
      "itary": 9077,
      "ĠLim": 9078,
      "Ġsurf": 9079,
      "Ġbanking": 9080,
      "Ġordinary": 9081,
      "Ġcig": 9082,
      "Ġles": 9083,
      "Ġabroad": 9084,
      "Ġabsor": 9085,
      "Ġsenator": 9086,
      "Her": 9087,
      "ĠMach": 9088,
      "ĠBa": 9089,
      "izer": 9090,
      "iverpool": 9091,
      "Ġrepresenting": 9092,
      "Ġdad": 9093,
      "Ġdisorder": 9094,
      "orship": 9095,
      "Ġmeasured": 9096,
      "BM": 9097,
      "cut": 9098,
      "lee": 9099,
      "ishop": 9100,
      "Ġlegacy": 9101,
      "Ġdust": 9102,
      "Ġobjective": 9103,
      "Ġpredicted": 9104,
      "uction": 9105,
      "Ġservers": 9106,
      "Ġtie": 9107,
      "Ġwarn": 9108,
      "Ġliterature": 9109,
      "Facebook": 9110,
      "ÏĦ": 9111,
      "theless": 9112,
      "ĠDoes": 9113,
      "Ġcriticized": 9114,
      "Ġdismissed": 9115,
      "ĠTen": 9116,
      "Ġdrove": 9117,
      "ĠWithout": 9118,
      "Ġphrase": 9119,
      "Ġsorts": 9120,
      "Ġrif": 9121,
      "Ġinsisted": 9122,
      "Ġrepresentatives": 9123,
      "ĠAtlantic": 9124,
      "Ġtape": 9125,
      "Ġscan": 9126,
      "Ġsoccer": 9127,
      "Ġcompare": 9128,
      "Ġreliable": 9129,
      "Ġpremium": 9130,
      "Ġrestaurants": 9131,
      "itual": 9132,
      "Ġhosp": 9133,
      "etch": 9134,
      "Ġlying": 9135,
      "Ġconventional": 9136,
      "olves": 9137,
      "iere": 9138,
      "pen": 9139,
      "Ġinvestigators": 9140,
      "Ġdomain": 9141,
      "Ġfocusing": 9142,
      "Ġportray": 9143,
      "oded": 9144,
      "ĠJustin": 9145,
      "ught": 9146,
      "Ġscope": 9147,
      "Ġ2020": 9148,
      "Ġsmartphone": 9149,
      "itol": 9150,
      "unicip": 9151,
      "annels": 9152,
      "Ġspokeswoman": 9153,
      "ĠLewis": 9154,
      "Ġrational": 9155,
      "Ġshield": 9156,
      "ĠProp": 9157,
      "amac": 9158,
      "Ġbeauty": 9159,
      "Ġplayoffs": 9160,
      "organ": 9161,
      "Ġheadquarters": 9162,
      "Ġsecondary": 9163,
      "ĠCorpor": 9164,
      "senal": 9165,
      "geon": 9166,
      "ĠKar": 9167,
      "ĠExpl": 9168,
      "Ġpatch": 9169,
      "ĠDO": 9170,
      "Ġmechanism": 9171,
      "Ġprotecting": 9172,
      "Ġspots": 9173,
      "Ġratio": 9174,
      "ÂĴ": 9175,
      "plus": 9176,
      "Ġswing": 9177,
      "ĠAbb": 9178,
      "trans": 9179,
      "ĠVietnam": 9180,
      "Ġcircle": 9181,
      "Ġblocked": 9182,
      "ĠJerusalem": 9183,
      "Ġaffordable": 9184,
      "600": 9185,
      "Ġmoon": 9186,
      "irts": 9187,
      "Ġhoped": 9188,
      "Ġtactics": 9189,
      "Ġbrilliant": 9190,
      "Ġproducers": 9191,
      "ĠGovernor": 9192,
      "ĠOrlando": 9193,
      "Ġracism": 9194,
      "Ġwaters": 9195,
      "ĠYOU": 9196,
      "Ġhealthcare": 9197,
      "OK": 9198,
      "ĠSus": 9199,
      "ĠBase": 9200,
      "Ġcorrel": 9201,
      "Ġdesigns": 9202,
      "Ġviolation": 9203,
      "Ġdub": 9204,
      "gal": 9205,
      "Ġwider": 9206,
      "ĠSamsung": 9207,
      "Ġdrama": 9208,
      "xit": 9209,
      "Ġjudges": 9210,
      "ĠMoon": 9211,
      "Ġmini": 9212,
      "Ġpersons": 9213,
      "hesis": 9214,
      "Ġsavings": 9215,
      "ĠIntelligence": 9216,
      "Ġuniversities": 9217,
      "Ġshame": 9218,
      "Ġbutt": 9219,
      "Ġlanding": 9220,
      "Ġprotocol": 9221,
      "Ġvoices": 9222,
      "Ġexch": 9223,
      "Ġcategories": 9224,
      "Ty": 9225,
      "alia": 9226,
      "Ġsevent": 9227,
      "tex": 9228,
      "Ġintim": 9229,
      "pha": 9230,
      "ĠRuby": 9231,
      "Ġretirement": 9232,
      "ĠBon": 9233,
      "Ġinfo": 9234,
      "alties": 9235,
      "Ke": 9236,
      "ethe": 9237,
      "ĠCredit": 9238,
      "elson": 9239,
      "Ġsubscrib": 9240,
      "aa": 9241,
      "card": 9242,
      "ĠTrib": 9243,
      "Ġassert": 9244,
      "ĠFootball": 9245,
      "84": 9246,
      "Ġhung": 9247,
      "ĠLA": 9248,
      "minute": 9249,
      "Ġsmell": 9250,
      "ocial": 9251,
      "Ġabilities": 9252,
      "Though": 9253,
      "ĠBeijing": 9254,
      "ĠStory": 9255,
      "amacare": 9256,
      "Ġwarrant": 9257,
      "ĠBridge": 9258,
      "onder": 9259,
      "ded": 9260,
      "ĠFall": 9261,
      "Ġpursue": 9262,
      "ĠVill": 9263,
      "ĠElizabeth": 9264,
      "ĠBra": 9265,
      "ĠNATO": 9266,
      "ĠEag": 9267,
      "Ġaccessible": 9268,
      "Ġinstrument": 9269,
      "Ġcream": 9270,
      "ĠDeb": 9271,
      "ĠLiberal": 9272,
      "heim": 9273,
      "ĠForm": 9274,
      "ĠGordon": 9275,
      "Ġimportantly": 9276,
      "AND": 9277,
      "ĠProv": 9278,
      "Still": 9279,
      "ennis": 9280,
      "Ġtracking": 9281,
      "Ġcivilian": 9282,
      "mir": 9283,
      "ĠRos": 9284,
      "Ġemployed": 9285,
      "Ġurged": 9286,
      "orous": 9287,
      "ĠBron": 9288,
      "ĠCooper": 9289,
      "Ġarguing": 9290,
      "Ġwindows": 9291,
      "ĠLibya": 9292,
      "Ġrookie": 9293,
      "ĠLine": 9294,
      "Ġreleases": 9295,
      "Ġsequence": 9296,
      "GE": 9297,
      "mony": 9298,
      "Ġalarm": 9299,
      "acted": 9300,
      "Ġstreaming": 9301,
      "Ġapproached": 9302,
      "Ġtargeting": 9303,
      "Dis": 9304,
      "archy": 9305,
      "ĠSilver": 9306,
      "Ġequality": 9307,
      "Ġmembership": 9308,
      "Google": 9309,
      "Ġlandscape": 9310,
      "uh": 9311,
[...]
